#define INIT_CONFIG {\
    .dim = 54,\
    .hidden_dim = 160,\
    .n_layers = 3,\
    .n_heads = 3,\
    .n_kv_heads = 3,\
    .vocab_size = 2000,\
    .seq_len = 256,\
}
static const uint16_t model_weights[225738] = {
    0x490A, 0xD31A, 0xCBE2, 0xD34F, 0x5409, 0xD0DD, 0x5801, 0xD68A, 0x5219, 0x53CE, 0x5071, 0x5130, 0x5218, 0x4B61, 0x559F, 0xD4BC, 0x528B, 0xD0BA, 0xD495, 0xD1D0,
    0xD021, 0xD394, 0x4E53, 0x4F77, 0xD17F, 0x46AF, 0xD34B, 0x4C04, 0x501D, 0xCD80, 0x526F, 0x4D5C, 0xCD07, 0xCDFE, 0xD5A5, 0xCFDD, 0x4845, 0xD5A6, 0xD02E, 0x511E,
    0x5651, 0x54AA, 0xD56B, 0xCC78, 0xCD28, 0x4C62, 0xD424, 0x4A33, 0x53B1, 0x52C2, 0xD021, 0xD3FD, 0xD50E, 0x55D2, 0xD00C, 0xCF1A, 0xD003, 0xCF26, 0x4C57, 0x4BAD,
    0xCD6B, 0x5216, 0x4C9A, 0x56E7, 0xCCF8, 0x5342, 0x5645, 0x515F, 0x519A, 0x4DE7, 0x5469, 0x547E, 0xD5E6, 0xD4BB, 0xCC80, 0x4CAA, 0x5241, 0x4CCB, 0xD4D5, 0x550E,
    0xD49A, 0x5378, 0x528B, 0xD196, 0x4839, 0x4C7D, 0xD43C, 0xD67C, 0x4AE0, 0x492C, 0x5243, 0xD61A, 0x550E, 0xCCA2, 0x4B5F, 0xD2B3, 0xC18D, 0x4E9A, 0xD4A5, 0x5366,
    0x4E06, 0xD620, 0x464D, 0xD390, 0xD15B, 0xC516, 0xC512, 0xD1F4, 0xD4AD, 0xCF81, 0xC74C, 0xD1D0, 0x55F1, 0xD1CB, 0xD0C4, 0x5692, 0x519A, 0x5438, 0x4F36, 0x5223,
    0xCE4F, 0x55FB, 0x505C, 0x475D, 0xD2A5, 0x55EE, 0xD705, 0xD40D, 0xD46F, 0x442F, 0x523F, 0x542A, 0xD1B0, 0x511E, 0xD34B, 0x5674, 0x50AD, 0xCE28, 0x547E, 0x5423,
    0x48C8, 0x4CB7, 0xD1A1, 0x4680, 0x5323, 0xD42F, 0xCE03, 0xD197, 0xC873, 0x5137, 0xD54C, 0x4080, 0xC509, 0x4E31, 0xD3D2, 0xD4F9, 0x56AC, 0xD209, 0xCE01, 0x52E7,
    0x4FD7, 0xD614, 0xD327, 0xD1EA, 0xCC83, 0xD2DB, 0xCC0E, 0xD57B, 0x4D41, 0x5532, 0xCA7D, 0xCF2B, 0x5490, 0xD051, 0x5503, 0x5319, 0x519F, 0xD60A, 0xB7C6, 0xC7B7,
    0x51ED, 0x5037, 0xCE9C, 0xD35E, 0x543A, 0xCCC5, 0xD703, 0x54EE, 0xD3EF, 0xD286, 0x4D45, 0xD287, 0x4C6B, 0xD36E, 0xD6C6, 0xD427, 0xD388, 0x49FE, 0xCCFA, 0x4C5C,
    0xD562, 0x4768, 0x4F1A, 0x5041, 0xD64C, 0xD1C6, 0xC898, 0xC172, 0xD5B8, 0xD312, 0x5362, 0x4944, 0xCF63, 0xD080, 0xD59C, 0x55CE, 0x51D5, 0x53C2, 0xCAE1, 0x524B,
    0x57E2, 0xD704, 0xD459, 0x52B7, 0x51BF, 0x5599, 0x5416, 0x531E, 0x5179, 0x5247, 0x48DA, 0x49BB, 0x5593, 0x56DF, 0x5459, 0xC8FC, 0xD382, 0x514B, 0x4C47, 0x4B5E,
    0xAF17, 0x5512, 0xCCF1, 0x5186, 0xCCFC, 0x4FA7, 0x52C8, 0x53B4, 0xCBBD, 0xD004, 0x4C92, 0xCF99, 0x5440, 0x5426, 0xD2F6, 0x544F, 0x5430, 0x5437, 0xD2EF, 0x5432,
    0xD1D4, 0x5157, 0x52FE, 0x4FD4, 0xD165, 0x50F9, 0xD23F, 0xB5A1, 0xD21C, 0x5160, 0xD5C1, 0xD414, 0xD564, 0xD1A4, 0x4EF0, 0xCF35, 0x4DC4, 0x565A, 0x487C, 0xCEC9,
    0xC56D, 0x4F3B, 0x4FF5, 0x53DC, 0x506E, 0xC75E, 0x5138, 0x57C3, 0xD333, 0xD824, 0xD4F2, 0x4F5A, 0x4B6C, 0x567D, 0x3BB2, 0xC34E, 0xD259, 0x458B, 0x51D8, 0xD221,
    0x514B, 0x5019, 0x472A, 0xD15C, 0x4C02, 0xCEFF, 0x5446, 0x501D, 0xCC6A, 0x4D45, 0xD301, 0xD1C4, 0xD3D8, 0xCA3E, 0x4C6B, 0x5251, 0x4326, 0xC3B6, 0x4FDD, 0xCD48,
    0xD514, 0xD590, 0x4838, 0xCDD5, 0xD5E4, 0xD2DB, 0xCE13, 0xD224, 0xC8A4, 0xD11B, 0xD468, 0x5390, 0x48F2, 0xD25A, 0x5552, 0x4977, 0x510F, 0x5608, 0x44B6, 0xD4B2,
    0x4E8E, 0x547F, 0xD4E3, 0xD3EE, 0x5431, 0xD55B, 0xD1AF, 0xD3C9, 0xD1ED, 0x48C4, 0xCDA2, 0x54C8, 0x52FB, 0x52EA, 0x54F0, 0x5292, 0xCF9B, 0xD1B2, 0x4FC9, 0xD0FD,
    0x558C, 0xD0DE, 0xD561, 0x55A0, 0x4672, 0xD243, 0x53A9, 0xD265, 0xD6AD, 0xD2B4, 0xD1ED, 0xD140, 0xCDCD, 0xD2EF, 0x4CE8, 0xD4C9, 0x4FE3, 0xC9FE, 0xD480, 0xD4C6,
    0x54B9, 0xD39A, 0xCE0D, 0xD3D0, 0xCD90, 0x4DB5, 0xD35A, 0x4F15, 0x3DF1, 0x4DE6, 0x54DE, 0x5521, 0x5397, 0xCDD2, 0x514F, 0x5116, 0x4EC3, 0xD178, 0xD0C9, 0x496C,
    0x5559, 0x4E99, 0xD337, 0xC40F, 0xD732, 0xD081, 0xD455, 0x4CD2, 0x5238, 0xD548, 0xD16F, 0xD34D, 0xD755, 0xD27A, 0x4BE6, 0x540C, 0xD419, 0x55E5, 0x515E, 0x4E09,
    0x4F38, 0xCE59, 0xD4C5, 0xD1FB, 0x4E82, 0xD0E9, 0x4B8E, 0x5581, 0x49A6, 0x4C21, 0xD576, 0x5413, 0x514C, 0xD444, 0xC926, 0x4E63, 0x5612, 0xD4AC, 0x509F, 0x58C4,
    0x4DAC, 0xB822, 0x50D6, 0x50BF, 0x4FA0, 0xD4EB, 0xCDF1, 0xCAEF, 0x5585, 0x5530, 0x5012, 0xD2CB, 0xD39A, 0x5491, 0xCFB5, 0x46A3, 0xC887, 0x5470, 0x50CB, 0x5436,
    0x5530, 0x4F1B, 0x55AA, 0xC9C6, 0xD718, 0x4F59, 0xD4BD, 0x543E, 0xC559, 0x592B, 0xD120, 0xBDDD, 0x5441, 0xD27B, 0xD254, 0x5159, 0xD4F8, 0xCD91, 0x5100, 0xD64E,
    0x5403, 0xCDC9, 0xD2ED, 0xD44A, 0xD513, 0x511C, 0x55E4, 0x4EE0, 0xD00D, 0xCDBC, 0x5148, 0xD4E9, 0xD209, 0x5482, 0x527B, 0xD5E6, 0xD33D, 0x4F32, 0x5200, 0x5444,
    0xCEAF, 0x4FB7, 0x5244, 0x549A, 0xCDE9, 0x5492, 0xD22E, 0x5271, 0x54D6, 0x5026, 0xC4AC, 0x5027, 0xCCF6, 0x5442, 0xC703, 0x495C, 0x5302, 0x4BA7, 0x4F1A, 0x50B3,
    0x45E9, 0xD4BD, 0x53AF, 0xD588, 0xD1B8, 0x4D40, 0x5079, 0xD26E, 0xD415, 0x5049, 0xD19D, 0x4F02, 0x4E34, 0x504A, 0xD2C8, 0x55A4, 0xD27E, 0xD02B, 0xD2AC, 0x5553,
    0x48F3, 0xD485, 0xD381, 0x4382, 0x5309, 0xD58B, 0xD33C, 0xC56A, 0xCF92, 0xCC46, 0x5102, 0x5483, 0x54FF, 0x5307, 0xD5F6, 0xC8E6, 0x454D, 0xD491, 0xD2A8, 0xCD91,
    0x4AC5, 0xCD9E, 0x5271, 0xD0B1, 0x54D4, 0xD59F, 0x5196, 0x48E9, 0x49F8, 0xCE6F, 0xCE16, 0xCD5A, 0xD4B5, 0xD621, 0x4C2F, 0xD1F1, 0xD01B, 0xD035, 0x5008, 0x542B,
    0xD220, 0x5647, 0xD530, 0xD10A, 0xD59F, 0x5269, 0xD407, 0x43E0, 0x5432, 0x538A, 0xD44A, 0xC687, 0xD283, 0x4C40, 0x4C11, 0xCEB0, 0xC82A, 0xD18E, 0x54F1, 0xD002,
    0xD2D0, 0xD46E, 0xCE09, 0xCC72, 0x549F, 0x5233, 0x5108, 0x554B, 0xD480, 0x5322, 0xCB26, 0xD350, 0x5164, 0xCC5E, 0x515D, 0xCCFB, 0x518F, 0x52D9, 0x547E, 0xD1EE,
    0x4DC0, 0x544E, 0xCC71, 0xD293, 0xCD1B, 0xD413, 0xD48E, 0xD666, 0x4AA8, 0xD503, 0xCDB9, 0xCC70, 0xCB37, 0x51B8, 0x4C2A, 0x4ED5, 0xD3A0, 0xC9DD, 0xD11C, 0x53CE,
    0xD58D, 0xD4F9, 0x5552, 0x5167, 0xD1CB, 0xD5BB, 0x45AD, 0x53C2, 0x48FB, 0xD312, 0xC7BC, 0xD079, 0xCEE9, 0x512D, 0xD4A4, 0x57C7, 0x4FC7, 0xCD3A, 0x5415, 0xD290,
    0x5248, 0x54F3, 0x4AA0, 0xD348, 0xD3F4, 0xD257, 0xC783, 0xCC4D, 0xD1F5, 0xD606, 0x54F0, 0xC904, 0xD330, 0xC3AA, 0x4B6B, 0x5059, 0xC4D3, 0xD43C, 0xCC79, 0xC627,
    0xD538, 0xD440, 0x4C0E, 0xD4D9, 0xCAD0, 0x5350, 0x525F, 0xD2DF, 0x56C1, 0xC56E, 0xD226, 0xD0B0, 0xD292, 0xCE28, 0xD532, 0xCEBB, 0x5262, 0x54F3, 0xD484, 0xCF72,
    0xD68C, 0x510A, 0xCADE, 0xD24B, 0xD14B, 0xBE05, 0x5027, 0xCE25, 0xD291, 0x505D, 0x5062, 0xCC7D, 0x5618, 0x57AF, 0x490A, 0x5264, 0x4257, 0x5195, 0xC868, 0xD573,
    0x49E4, 0x52FF, 0x53AC, 0xD758, 0x5447, 0x5339, 0x5052, 0xD2CC, 0x5134, 0xD217, 0x4397, 0xCF49, 0xCE43, 0xB8D8, 0xC9D6, 0xD43F, 0xCC5A, 0xCD3A, 0xCD60, 0x4D60,
    0xCAF5, 0x5413, 0x481C, 0x548C, 0xD3F9, 0xCB5F, 0xD1EC, 0x5549, 0xD47B, 0xD069, 0x5026, 0x4458, 0xCC9F, 0xD6D7, 0xD68F, 0xD4DE, 0x383C, 0xD384, 0xD782, 0xD1D2,
    0xD44E, 0xD32E, 0x4CEF, 0x4D76, 0x4E53, 0x5484, 0x4534, 0xD371, 0x5625, 0xCFCE, 0xD34A, 0xCFA6, 0x52DE, 0xCE8E, 0xD50D, 0xD032, 0xD07C, 0xD469, 0x51A7, 0xD61D,
    0xC89C, 0x4B06, 0xD4BF, 0xD074, 0xCD1B, 0x533C, 0x5463, 0xD334, 0xD2E0, 0xD36B, 0x4D1C, 0xC10D, 0xD36A, 0x50DE, 0xC8A2, 0x4DB3, 0xC930, 0x5782, 0xD50A, 0xD5D3,
    0xD6E3, 0xCE3C, 0xCD99, 0xCE48, 0x56A1, 0x52B7, 0xCF57, 0x4AC7, 0xD4DE, 0x4FB7, 0xD752, 0x4C23, 0xCCC8, 0xD2C2, 0xD677, 0x5158, 0xD3AF, 0x47F7, 0x50EE, 0xD67E,
    0xD2B2, 0x541C, 0x5245, 0xC904, 0xDA46, 0x506F, 0x53AA, 0x5802, 0xD0D8, 0x5144, 0xD573, 0x4579, 0xD156, 0x53E3, 0xD148, 0xCB80, 0xD3D7, 0x53AB, 0x57AE, 0xD47F,
    0xD480, 0x5355, 0x4844, 0x5573, 0xD6E0, 0xD12C, 0xC080, 0xCAA4, 0xD730, 0xBFB0, 0x54D1, 0x5824, 0xD4CF, 0x58B3, 0xD48C, 0x54B1, 0x53E1, 0xD504, 0xD3ED, 0x5640,
    0xD0DA, 0x5646, 0x5077, 0x547D, 0x4EEE, 0xD0FD, 0x5437, 0x52F9, 0xD243, 0xD594, 0x5453, 0xD3E4, 0x4FF1, 0xD127, 0x52BC, 0x4DF4, 0xD2F8, 0x5220, 0xD709, 0xC71D,
    0x551D, 0xC9C5, 0xD549, 0xD1A8, 0x53C0, 0xD2AC, 0x54B5, 0x502E, 0xCFBB, 0xCE52, 0xD2F3, 0x5364, 0xC6DE, 0xD3A9, 0xD33E, 0x545D, 0x5294, 0xD48D, 0xCE17, 0xD137,
    0x54E2, 0x4DA0, 0xCDE9, 0x4832, 0x5061, 0x5043, 0x4487, 0xD079, 0x4CAB, 0x5283, 0xC976, 0x52B0, 0x5464, 0x5085, 0xD14E, 0x4DDA, 0x4D5A, 0x4915, 0xD4BE, 0xCF5B,
    0x4C52, 0xCEB7, 0xC9CC, 0x508E, 0x4E4D, 0xCD39, 0x5336, 0xD619, 0xD47C, 0x50F2, 0xCD63, 0xD46E, 0x51C1, 0xC976, 0x4A82, 0xD525, 0xD23B, 0xCA8A, 0x4503, 0x49D7,
    0x4E05, 0x522C, 0x5123, 0xCC73, 0xD6A7, 0x5517, 0xD14F, 0xD0F5, 0x2D24, 0x522B, 0x508A, 0xC979, 0xD14F, 0x4FC1, 0x5656, 0xD4A1, 0x57BB, 0x50C8, 0x522C, 0x5530,
    0x4E29, 0xD468, 0x50C0, 0x4F17, 0xD175, 0x5052, 0x4A8B, 0xC139, 0x556B, 0xCBC4, 0xC91A, 0x5637, 0xD4CE, 0xD298, 0xD5C1, 0x4DBB, 0xCA97, 0xCA27, 0x460E, 0x44E8,
    0x4C02, 0xD228, 0x50B7, 0xD5DA, 0x553E, 0x51DD, 0xD3D9, 0x5488, 0xD418, 0xCBF8, 0xD216, 0x526B, 0xC06F, 0x4F34, 0x4A9B, 0x5136, 0x50EC, 0xD24A, 0x56F9, 0x5562,
    0x54A1, 0xC633, 0xCC40, 0xD472, 0x48AB, 0x5087, 0xD6B1, 0x4D84, 0xD158, 0x4E79, 0x5221, 0x4DAB, 0xD363, 0x558E, 0x5528, 0xD439, 0xCC6E, 0x4E40, 0x514A, 0xD1EE,
    0xD17C, 0x54A8, 0x5224, 0x4297, 0xD67F, 0xCEA0, 0x55DC, 0xCD0D, 0x4BC6, 0x487A, 0xCE5E, 0xD6E6, 0x4571, 0x589B, 0x4A0E, 0x56E0, 0x555E, 0x4CB3, 0xC7BE, 0x475C,
    0x4730, 0xD14A, 0x5854, 0x576D, 0x4277, 0xD1F0, 0xD4EF, 0xCCC8, 0xD22A, 0x41BD, 0xCC0F, 0xD12B, 0x4CF7, 0x50C2, 0x5220, 0x5537, 0xCE73, 0x536D, 0xD10F, 0xCAA2,
    0x4797, 0xD448, 0x5069, 0xC57F, 0xCDF7, 0x4404, 0x47D2, 0x4521, 0xCEDF, 0xC4E1, 0x5574, 0xCFE9, 0x4925, 0xD6B8, 0x5477, 0xCAC8, 0x271A, 0xD4C3, 0xD158, 0x4BF9,
    0x5497, 0x5804, 0xD4E2, 0x550D, 0xD4BA, 0xCDD9, 0xCE4E, 0x4E32, 0xD802, 0xD0B2, 0x54CC, 0x55B9, 0xD469, 0xCD93, 0x537B, 0xC00F, 0xD4BC, 0x4F6E, 0x46DC, 0xD487,
    0x4F7F, 0xD482, 0xD122, 0xCE9C, 0xC8A6, 0x3B16, 0x5475, 0x54D1, 0x5061, 0x539D, 0x5662, 0xD510, 0xD2FC, 0xD098, 0xD5CF, 0x4C5A, 0x4131, 0x4E3D, 0x5687, 0xD4C6,
    0xC83E, 0x5440, 0xD16D, 0x4EEB, 0x5527, 0x51F6, 0x4CDF, 0xCEA9, 0xCE6D, 0x54AA, 0xC80B, 0x4C4F, 0x54C1, 0x5464, 0x528F, 0x5458, 0xCCE9, 0x5028, 0x4F37, 0x4ADA,
    0xD00C, 0x50D6, 0x5433, 0x5046, 0x5489, 0x4FBC, 0x5158, 0x4DDC, 0xD618, 0x480D, 0x55AC, 0xD1A7, 0x4364, 0x50EC, 0xCA46, 0xD229, 0x4DE4, 0x5094, 0x49B0, 0xCCC6,
    0xD3D3, 0x5128, 0x516D, 0xD324, 0x554F, 0x50E6, 0x5405, 0xD4E6, 0x5297, 0x5261, 0x518C, 0x51D0, 0xCF61, 0x54A0, 0xCA7D, 0xCE23, 0xD15A, 0x4D22, 0xD121, 0x4F5F,
    0xD1D7, 0x5343, 0xD302, 0x561D, 0xD438, 0x5314, 0xCE6E, 0x5119, 0xD6CC, 0xCCEB, 0xD217, 0xD4B5, 0x5492, 0x4AB9, 0x3330, 0x53B7, 0xCE39, 0x52C2, 0xCF07, 0xD0D6,
    0x56F1, 0xD07C, 0x3632, 0x41A6, 0x5426, 0x5301, 0xCBBC, 0xD0B0, 0xD407, 0x3837, 0x56FD, 0x40EE, 0xCAE0, 0x4904, 0x51A8, 0xCC87, 0x490C, 0xD461, 0x5477, 0x4C63,
    0xCE60, 0xCE47, 0xD117, 0xD546, 0x5404, 0xD55D, 0xCDBB, 0xD066, 0xD308, 0xC174, 0x537D, 0xCFB2, 0xD1E1, 0x48F2, 0xC6D4, 0xC4D6, 0xBDE5, 0xCEC4, 0x48F9, 0xCE87,
    0x54D5, 0xC683, 0x4FC6, 0x44F5, 0xD365, 0xD6B2, 0xD300, 0xC946, 0x4F18, 0xCEAA, 0x4CE9, 0x524B, 0x53E5, 0xD391, 0x53CD, 0x44DD, 0xD0C0, 0x5185, 0x4EF9, 0x42EE,
    0x50D6, 0xD22F, 0x4CB9, 0xD300, 0x4DF1, 0x46E2, 0xCBAC, 0x51BD, 0xD534, 0x4CE9, 0xD21F, 0x48D3, 0x554E, 0xD71D, 0xD42B, 0xD4AE, 0x4C0F, 0xD06E, 0xD1B5, 0x50DB,
    0xD170, 0x48FA, 0x51C3, 0x5186, 0xD0CF, 0xD2C4, 0xD413, 0xC833, 0xD2EA, 0xD753, 0x5823, 0x50CF, 0xC793, 0xD4F1, 0x4D73, 0x5687, 0xD308, 0x51E3, 0xD47D, 0x4D67,
    0xC3BF, 0x4D2E, 0xD2C4, 0xCFAC, 0xD646, 0x48AA, 0x50A1, 0xD4E2, 0x5270, 0xCC76, 0x5084, 0xBC8F, 0x4BA8, 0x4F40, 0x4C8B, 0xCF7C, 0x51CF, 0xD607, 0xD0A1, 0xD418,
    0x5334, 0x500C, 0xCF69, 0x514A, 0xCDEA, 0xD3EC, 0xD16B, 0x50FE, 0xCE7C, 0x5576, 0xD48E, 0x5381, 0xD0F6, 0xD618, 0xD516, 0x4D69, 0x5449, 0xD428, 0x5626, 0xD2EA,
    0x4EFF, 0x55D0, 0x4C63, 0xCB39, 0x490A, 0xCAFA, 0xC4A1, 0x4F7B, 0xD384, 0x475A, 0x4D4A, 0xD80C, 0xD0CA, 0xD024, 0x51B5, 0xD10D, 0xD511, 0x538A, 0xD447, 0xD220,
    0xC77C, 0xC17E, 0x48EC, 0x50B0, 0x4D47, 0xCCCF, 0x56F1, 0x559F, 0x52CC, 0xCA42, 0xD17E, 0xCD09, 0x54F0, 0x5012, 0xD035, 0x5682, 0xD307, 0xD510, 0x50CF, 0xD4DB,
    0x52CB, 0xCC2B, 0xD440, 0x3DA4, 0xD26B, 0xD35A, 0x4193, 0xD243, 0x4D8D, 0xCC75, 0xD506, 0x553D, 0x55C4, 0xCA91, 0xD40D, 0x5129, 0x4CE8, 0x4C90, 0x4061, 0x4C75,
    0x51E0, 0xCCD4, 0x4E73, 0xC85A, 0xD519, 0xD330, 0x4DDD, 0xD0BB, 0xD0B9, 0xD4D5, 0xD631, 0x50C9, 0x4D3A, 0x4CA2, 0xD3DD, 0x5347, 0x5286, 0x55FF, 0x53F7, 0xD2D4,
    0xD02D, 0x4BCF, 0xC866, 0xD3CC, 0xC3A6, 0xCE0D, 0xD29C, 0x48B3, 0xD12C, 0xD2EF, 0x5112, 0x4962, 0x5267, 0xCE66, 0xD0F5, 0x45A9, 0xD170, 0xD611, 0xCFDB, 0xD588,
    0x507B, 0x515E, 0xD4E5, 0xD485, 0x479C, 0x4EDC, 0xC4CF, 0x5260, 0xD46B, 0x50FE, 0xD56C, 0x4C9B, 0x4E54, 0x54F2, 0x4DA1, 0xD486, 0x4855, 0xCD92, 0xD41C, 0xC424,
    0x4E7A, 0xD33D, 0x4B5F, 0xCFFC, 0xD39E, 0x5155, 0x55EA, 0x4D14, 0xC9B2, 0x52EA, 0x5489, 0xCD53, 0x52FB, 0x52C2, 0x4BEA, 0xCDEE, 0xD413, 0xD41D, 0xD173, 0xC06A,
    0xD151, 0x488A, 0xD453, 0x4979, 0xD8F5, 0x5256, 0x51C9, 0xD051, 0xC9B9, 0x4BB1, 0xCF6E, 0xD3C0, 0xCE63, 0xD059, 0x54DD, 0xD0FA, 0x585E, 0xD1ED, 0x5213, 0xC66E,
    0x5349, 0x52CC, 0xCC06, 0x55C8, 0xD0CA, 0xCE3D, 0xC89B, 0xD1B4, 0xC5DF, 0x4E6D, 0x50E7, 0xD1B5, 0xD579, 0xCECD, 0xD1E6, 0xCAD8, 0x4A78, 0xD070, 0xD12D, 0xD2FA,
    0x55B9, 0xC4B5, 0x517B, 0x33CF, 0xCF8B, 0x5274, 0xD25E, 0xCE67, 0xD183, 0x5069, 0x50FB, 0xC44F, 0xD52A, 0x44EF, 0x50EF, 0x5220, 0xC969, 0xD149, 0xCC7B, 0x4C65,
    0xCFBF, 0xD3AC, 0xCF83, 0x5275, 0xD1E5, 0xD38F, 0xD410, 0xD014, 0x516D, 0xBDE3, 0x54EE, 0x4FE8, 0xD594, 0x4FF9, 0x3FA8, 0xD5ED, 0x4D23, 0x4566, 0xBC84, 0xD08C,
    0x56EE, 0xCFED, 0xD634, 0xD4D7, 0xCCE2, 0xD12F, 0xD640, 0x5123, 0x4BE7, 0x4624, 0xD78B, 0xD2C1, 0x4C3F, 0xD34C, 0x50AF, 0xD5D1, 0xCE07, 0x4F1C, 0x5550, 0xD449,
    0xD76C, 0x518E, 0x5415, 0x5076, 0xD516, 0x5725, 0xCD28, 0xD566, 0xC8CE, 0x4A8F, 0xC732, 0xD549, 0x4F14, 0xCDBA, 0x522C, 0x45F5, 0x4DCC, 0xD50D, 0x57A0, 0xD5A6,
    0xD5A4, 0xD1D7, 0x50B4, 0xD4EC, 0xD4D1, 0x514F, 0xD436, 0x4AAE, 0xD5C0, 0x582C, 0x506D, 0x4BB4, 0x5346, 0xD26B, 0x569C, 0x51D4, 0x5127, 0xCB00, 0xD242, 0x558E,
    0xD747, 0xD583, 0xD273, 0x4587, 0x44F4, 0x4FB2, 0xD68A, 0xC89B, 0xC74F, 0x5128, 0x4894, 0x52A5, 0x3E20, 0xD6B9, 0xD312, 0x5042, 0xC722, 0xD7C4, 0xD2AF, 0x51FD,
    0x50D2, 0xD44C, 0xD4E4, 0xC9E9, 0xD2ED, 0xD4F2, 0x4A47, 0xCEEE, 0x5564, 0xD588, 0xD590, 0xD457, 0x5654, 0xCA3A, 0x4CBB, 0xD384, 0x55EE, 0xC10B, 0x5118, 0xC9E7,
    0x5575, 0x52D5, 0xD4F1, 0x4C43, 0xD195, 0xCB58, 0xD683, 0xC844, 0x541C, 0x48E8, 0x54BA, 0x4CC9, 0xD742, 0x55EA, 0x50FB, 0xD2C7, 0xD477, 0xD272, 0x54C6, 0xCCAD,
    0xD009, 0x5028, 0xBE3A, 0x4F80, 0x594F, 0xCCD8, 0xD05D, 0x4CE8, 0xD1D2, 0xD38B, 0xD435, 0xD0F5, 0x48AC, 0x406C, 0xD03E, 0xCD06, 0xD0A3, 0x5335, 0xD517, 0xCF55,
    0xD222, 0xCD96, 0xCC70, 0x541D, 0x4843, 0xD369, 0xD0C1, 0x4DD0, 0xD57E, 0x3893, 0x45ED, 0x5474, 0x540B, 0xD0A0, 0xD01A, 0xB49A, 0xD318, 0xD265, 0xD844, 0x3472,
    0xC7E5, 0xD17C, 0xCB94, 0x501D, 0xC9FF, 0xCF12, 0x50E3, 0x506B, 0x4FC8, 0xD07D, 0x48DF, 0xCFBD, 0xCC66, 0x4241, 0xD414, 0x570D, 0xD467, 0xD0BB, 0xCEB3, 0xCD04,
    0x3F5A, 0x556B, 0x53B0, 0xC722, 0x55B8, 0x5329, 0xCE20, 0x4C37, 0xD417, 0xCE94, 0x4FD9, 0x5043, 0x4A7A, 0x554E, 0x4F63, 0xD491, 0x5443, 0xB533, 0x4BD7, 0xD096,
    0xD243, 0x5179, 0xD259, 0xD81A, 0x4C25, 0x4073, 0xC8BD, 0xD432, 0xD5D4, 0x5418, 0x533A, 0xD128, 0xD33B, 0x4D94, 0xD1C8, 0xCFFD, 0xB904, 0xC798, 0x3D39, 0x3F63,
    0x53B2, 0x545A, 0xD01F, 0xC926, 0x5523, 0x5512, 0x515E, 0xD020, 0x514F, 0xCA5E, 0xD393, 0xD16F, 0x4973, 0xD446, 0xCC86, 0xCD05, 0x4A1F, 0x426A, 0x5385, 0x5543,
    0x4BD8, 0xC8F9, 0xD517, 0xCC19, 0x4C24, 0xD462, 0xC5AF, 0xD2B9, 0xD01F, 0x4E5E, 0xD369, 0x50FF, 0x5010, 0xD145, 0xD100, 0x4D51, 0xC052, 0x517B, 0x548B, 0x54FC,
    0x472C, 0xCF6B, 0x5360, 0xCE28, 0xD03D, 0x565C, 0xD081, 0xD397, 0x5111, 0xD211, 0x55E3, 0xCDFB, 0x4D4B, 0xD41C, 0xD606, 0x49AB, 0xD3E2, 0xD196, 0x5038, 0x5404,
    0xD44B, 0xD00B, 0x4FAF, 0xCC7A, 0xCD98, 0x5287, 0xCE03, 0x5566, 0x4A12, 0xD3D0, 0x45C7, 0xC996, 0xCFB6, 0x547A, 0xD00A, 0x4D7A, 0x528D, 0xD55B, 0xD21B, 0x549D,
    0xCF8E, 0x4CBF, 0x5082, 0x55E2, 0xC2D2, 0x4D8C, 0x4D01, 0xD262, 0xCDBF, 0x515D, 0xD0A9, 0x5428, 0xD086, 0x53A5, 0x548F, 0x5483, 0xCCE7, 0x51B7, 0x4DE8, 0xCDEB,
    0xD425, 0xCFA9, 0xC34A, 0xB99A, 0x53A3, 0x5445, 0xD6AA, 0xD42E, 0xD7DE, 0x5241, 0xD328, 0x4AB2, 0xC1FA, 0x5313, 0x54CC, 0xD65E, 0x54B5, 0xD1A0, 0xD4F0, 0xD2F0,
    0x4BCB, 0xD391, 0x4B18, 0x4665, 0x4F24, 0xCEDF, 0x5148, 0x50CF, 0xD0D2, 0xCCAE, 0xD082, 0x4B26, 0x4777, 0x51B2, 0xD2B2, 0xCF76, 0x50AF, 0x51EE, 0xD0A0, 0xC22D,
    0x5031, 0xCA16, 0xCE1B, 0x506E, 0xC94E, 0x5080, 0x5016, 0x4E3D, 0x51ED, 0x4DE5, 0x5332, 0xC1DF, 0xD2A0, 0x529A, 0xD3E1, 0xD680, 0x5042, 0x4898, 0x54DB, 0x4A5B,
    0x4FE2, 0xD239, 0x417D, 0x5418, 0x549E, 0x51DC, 0xB512, 0xCE9C, 0xD6CD, 0xD160, 0xCC8E, 0xD1DA, 0xD0E7, 0xCEEB, 0x5476, 0x5573, 0xD4A4, 0xD403, 0x49EA, 0x5943,
    0x5449, 0x5319, 0xD78A, 0x4AC6, 0xD682, 0xD624, 0xD1FB, 0xD620, 0xC44B, 0x55A7, 0x5574, 0x4504, 0xD154, 0xC518, 0x56CF, 0xD191, 0xC908, 0x4C9B, 0x482C, 0xD302,
    0xD1F8, 0xD101, 0x58AC, 0xD7A5, 0xD202, 0x4609, 0xD40F, 0x44FA, 0x4C88, 0xC63A, 0x5008, 0xCFF6, 0xCE65, 0x51AA, 0x51A2, 0x4AD9, 0x4641, 0x5905, 0x4AE1, 0xD07C,
    0x533C, 0xD104, 0x524F, 0xD337, 0xD269, 0x4640, 0xD528, 0xD4D9, 0x5385, 0x5192, 0xD171, 0x5088, 0xCEEE, 0x4830, 0x536D, 0x4B63, 0xCF23, 0x4D72, 0xD712, 0xD0D5,
    0x5252, 0x4D05, 0xC42A, 0x549E, 0x3FE4, 0xD04C, 0x5211, 0xD2FF, 0xC5FD, 0xD051, 0xBF14, 0xD605, 0xD466, 0xD380, 0x4E9F, 0xD0B2, 0x529A, 0xD148, 0x3288, 0x552F,
    0xCBB4, 0xD293, 0xD088, 0xCC09, 0xD1FC, 0x4E62, 0x4C9F, 0x573A, 0xD0EA, 0xCA9F, 0x4F22, 0xD02C, 0x550C, 0x4FCF, 0x4E7A, 0x52A7, 0x44EA, 0xCFAE, 0xD14C, 0x5493,
    0x521C, 0x4BA9, 0x4EBB, 0x53FE, 0x56DF, 0x5591, 0xCE11, 0xC111, 0x51B7, 0x500D, 0x4EF4, 0x4E8A, 0xCF66, 0x4AC9, 0x4BFF, 0xD39F, 0x53EB, 0x4A55, 0xD029, 0x4C69,
    0xD55B, 0xD2DA, 0x549A, 0xC0FF, 0x5258, 0xCB7E, 0xCDAF, 0x5116, 0xC937, 0xD492, 0xD1A9, 0xC1A2, 0x5228, 0x518B, 0xD36F, 0x4FD2, 0xCFD9, 0x54F8, 0x51FC, 0x540C,
    0xD3F0, 0x503C, 0xD069, 0xD3CB, 0x52B4, 0x55CF, 0x489E, 0x56A1, 0x52C2, 0x51EC, 0xD66D, 0xD84C, 0xD618, 0xD1A6, 0xD254, 0x4E7E, 0x5220, 0x5054, 0x4B6C, 0xD1F0,
    0xC884, 0xC8B1, 0xCA98, 0x53B0, 0xD462, 0x4E7D, 0x54C2, 0xC3BC, 0xD28C, 0x55AA, 0xCAE6, 0x4D50, 0x49F7, 0xCC0A, 0x514C, 0x42AD, 0x5418, 0x5189, 0xD315, 0x548F,
    0xD2FF, 0x55F5, 0xBF3C, 0x444F, 0x56C1, 0xC692, 0x4D51, 0xD14B, 0x4EF9, 0x4ADE, 0xD317, 0xCDE4, 0x5258, 0x4FDA, 0x58E0, 0x4424, 0xCC8C, 0xD347, 0xCFCF, 0xCE04,
    0xD405, 0x5384, 0xD4A1, 0xD52E, 0xD56C, 0xD4C2, 0xD196, 0x50E0, 0x5133, 0xD3E0, 0x4F94, 0x4DAB, 0x5179, 0xD212, 0x5405, 0x3C21, 0xD28C, 0xCF21, 0xD75B, 0x538B,
    0xD603, 0xC9E4, 0xD1A1, 0x5380, 0x5477, 0x55D1, 0x5530, 0xD340, 0x5493, 0xC971, 0xD06F, 0xD29B, 0xD3C4, 0xD77C, 0xD60B, 0xD1DA, 0x57BC, 0xD696, 0xD091, 0xD4FB,
    0xD5BF, 0xC8F5, 0xCBF9, 0x509B, 0xD7AB, 0x515C, 0x5108, 0x4C53, 0x54E7, 0xD4C0, 0x4CA1, 0xCC15, 0x4FCF, 0x57EB, 0xD4F3, 0xCB36, 0xCF97, 0xD0A7, 0xB8B0, 0xD49A,
    0xD490, 0x5166, 0x50D8, 0xD161, 0xD4AF, 0x5055, 0xC502, 0x546D, 0x4E71, 0x527D, 0x4483, 0x495E, 0x5594, 0x43BC, 0xD167, 0xD1AB, 0xCD88, 0x4C43, 0xCCD8, 0xD472,
    0xD637, 0xD4D7, 0x4AEB, 0x5060, 0x501A, 0x44D9, 0xD748, 0x4E55, 0x509B, 0x4E91, 0x564E, 0x4851, 0xD07D, 0x5479, 0xD450, 0x4851, 0x52FD, 0xD4D1, 0x4F3E, 0xCA3D,
    0x54A4, 0xD483, 0x5514, 0x508F, 0xD26D, 0x45CB, 0xD428, 0x54A4, 0xD0E5, 0x5632, 0x42B6, 0xD64D, 0x4F7D, 0x5034, 0xD527, 0x407E, 0x4D26, 0xCF3D, 0x4F21, 0x3D65,
    0x4E68, 0x5629, 0xD46F, 0x5375, 0xD140, 0x5398, 0x50ED, 0x5265, 0x518D, 0xD29C, 0xCC91, 0x502A, 0x5153, 0xD2D4, 0x50F7, 0x4C83, 0x52B0, 0xCD45, 0xD073, 0xD668,
    0x55F0, 0x4E2B, 0xD265, 0x5663, 0xC922, 0x5493, 0x5596, 0xCF75, 0xD036, 0x53D1, 0x586E, 0xC7B3, 0x5006, 0x5414, 0x40D6, 0x4B82, 0x56CC, 0x4C98, 0xD2CB, 0xCE75,
    0xD464, 0x5639, 0xC6C2, 0xCC2A, 0x4C84, 0x4E7F, 0xBFB3, 0xCDE5, 0x5181, 0xD8F6, 0xD4FB, 0xD5DA, 0x51F1, 0x45D4, 0xD4B9, 0x4D2F, 0xD399, 0xD531, 0xBE00, 0x55B5,
    0xD564, 0xD064, 0x5138, 0xCC61, 0xCBF3, 0xCD8D, 0x4D37, 0x49D6, 0xD489, 0x47C9, 0x54C0, 0x5363, 0x504B, 0x46D0, 0x4CFA, 0x4A2E, 0xD7BE, 0x527C, 0x5474, 0xD06A,
    0x539B, 0x4BEB, 0xD323, 0xD3F7, 0x53A3, 0x5330, 0x52A4, 0x5692, 0xD03B, 0x508D, 0xD1E5, 0x55A2, 0x4DD1, 0xCEEA, 0xD65F, 0x52B5, 0xD558, 0x4ECD, 0x4E4D, 0x4BA2,
    0x53BD, 0xD3F3, 0xD621, 0x4B22, 0x563B, 0x4EE9, 0x52ED, 0x4DFC, 0x558E, 0xC05E, 0xD7C2, 0x4C1E, 0xD114, 0xD226, 0xD4EE, 0x569A, 0x5385, 0xD184, 0xD64A, 0xCD17,
    0x4EF7, 0xD420, 0xCCB0, 0x50C5, 0xCC34, 0xCD88, 0xD509, 0xCF20, 0x5660, 0x5260, 0xCD36, 0xCECA, 0xC809, 0x4A74, 0x524B, 0xD698, 0xCBB7, 0xC96A, 0x5324, 0xD26E,
    0xD20C, 0xD00C, 0xD083, 0xD55F, 0xC987, 0x55D5, 0x5136, 0xD5AA, 0xD3C5, 0x5761, 0xD0AF, 0x5449, 0xD28F, 0x5049, 0xD306, 0xCE0F, 0xD6A0, 0xC8B5, 0xD5C7, 0xC75B,
    0x5249, 0x50CA, 0xD581, 0xD29B, 0xD3CB, 0xCE43, 0xC917, 0x519E, 0xC15E, 0xD619, 0x5433, 0x54D2, 0xD3FF, 0xD143, 0xCC8F, 0x5118, 0xD2E3, 0x4B99, 0xD0F8, 0xC6A3,
    0xD3B9, 0x4C9A, 0x559D, 0xD288, 0xD4E5, 0x5432, 0x544A, 0xCC03, 0xD3C7, 0x5249, 0x50DA, 0x547A, 0x5802, 0xD2BB, 0x4C97, 0x54EE, 0x55A9, 0x50E2, 0xD04D, 0x5029,
    0x3F6F, 0x4F73, 0x4EE6, 0x553A, 0xD38F, 0x4CC3, 0xCCFE, 0x5268, 0xC593, 0xD625, 0xC94E, 0xD11A, 0xD606, 0x44EB, 0x5498, 0x5311, 0x51BA, 0xC625, 0x5255, 0x5705,
    0x4CC5, 0x5579, 0x4D1D, 0x5245, 0xD1ED, 0x5221, 0x4934, 0x50BC, 0x48E1, 0xD60B, 0xC50B, 0x4A18, 0xD03D, 0x51FA, 0x52EB, 0xC83E, 0xD5BB, 0xD20F, 0x528C, 0x5383,
    0x54AA, 0x5265, 0xD373, 0xD04F, 0x4D23, 0x5141, 0x5158, 0xD0B7, 0x54DA, 0x5254, 0x41F6, 0x534D, 0xCD37, 0x4FAB, 0x4C6E, 0xC84D, 0xD1B4, 0xCB32, 0x53AC, 0x4A05,
    0xCF18, 0x3559, 0x47F3, 0x5032, 0xD1BB, 0x5238, 0x5397, 0xCCE1, 0x4902, 0x5533, 0x50B6, 0x561D, 0xD4BB, 0xD340, 0x5321, 0xD424, 0x5493, 0x53F2, 0xCF3D, 0x4C53,
    0xD0B2, 0xD339, 0x509D, 0x544D, 0xD021, 0x4B5B, 0xD61B, 0xD47E, 0x55AB, 0x5494, 0x560A, 0xC484, 0xD1BA, 0xCBB6, 0x552C, 0x514A, 0x5451, 0x53E8, 0xD00F, 0xCBDE,
    0xCC40, 0x5224, 0xD0E2, 0x538C, 0x4CC1, 0x512F, 0x4A87, 0x524F, 0xCF6C, 0x5469, 0x4DBC, 0x4CEE, 0xD820, 0xD569, 0xD246, 0xD2E8, 0xD5E4, 0x4A25, 0xD314, 0x4FF1,
    0x542E, 0x5263, 0xCDD9, 0x5189, 0xCDFC, 0x5487, 0x4E72, 0x4AA0, 0x544E, 0xC614, 0x5033, 0xCB5A, 0xC81C, 0x4564, 0x5341, 0xC90C, 0xC9ED, 0x5353, 0x5413, 0x554C,
    0x537A, 0x534D, 0x4C01, 0xCC0B, 0xC2F2, 0xCA00, 0xCEAA, 0xD2BC, 0x55EA, 0xD41E, 0x4C97, 0x52C0, 0xC306, 0x4BA1, 0x54AF, 0xD601, 0x429F, 0x52DB, 0xD443, 0x4C32,
    0xD332, 0xD79B, 0x52F3, 0x4097, 0x4E1A, 0x3DEE, 0x4868, 0xD1D5, 0xD53E, 0x5355, 0x4C15, 0xCC67, 0xCC8B, 0x4CF4, 0xCD74, 0xC4A9, 0x5408, 0x52B3, 0x5011, 0x4D2E,
    0xCA70, 0x4A10, 0x4891, 0x56E3, 0xC91C, 0x5498, 0xD269, 0xD22D, 0xCFD3, 0x51A3, 0x4D0F, 0xC8BC, 0xD54A, 0xD14E, 0x498D, 0xCF7B, 0xD11E, 0xD50F, 0x4FC7, 0x5083,
    0xCFC9, 0x49EB, 0x4650, 0x4E3E, 0x566B, 0xCAD9, 0xD201, 0xB5EF, 0xCEE7, 0xD1D5, 0xD0F1, 0xC226, 0xD2B9, 0xD00C, 0x4B5F, 0x5468, 0x5368, 0xD42F, 0x51C8, 0x4FEB,
    0xD070, 0xCA00, 0xCCA7, 0x3983, 0xCE72, 0xCD41, 0xCD56, 0x50C2, 0x45F5, 0xCC91, 0x347D, 0xD130, 0x50E4, 0x5510, 0x5700, 0x522B, 0x53E1, 0x54FC, 0x5468, 0x5079,
    0xD12D, 0x4C46, 0x49B2, 0xBFB5, 0x4F57, 0xD58B, 0xD4B9, 0xCA39, 0x4BFF, 0x57F3, 0x53EA, 0xCA41, 0xD56E, 0x5037, 0x52F3, 0xC938, 0x5673, 0x3E7F, 0xCD69, 0xC80A,
    0x4CFC, 0x4D6E, 0x5579, 0xD1E9, 0xD07E, 0xC926, 0x5698, 0xD506, 0x4D54, 0x4DD5, 0x4DB9, 0xD28E, 0xCC2D, 0x53A3, 0xD172, 0x576C, 0xD0B5, 0xD7D7, 0x4F2E, 0x4D51,
    0x4BF3, 0xD017, 0x55BB, 0xD509, 0x4FCA, 0xD1DA, 0x542C, 0x50E3, 0xD19F, 0x5706, 0xD5FB, 0x53C4, 0x53C1, 0x505C, 0x525A, 0x4D0E, 0xD139, 0xC6E3, 0xB569, 0xCD7E,
    0x52AB, 0x41A0, 0x5596, 0xCF6D, 0xD398, 0xD44B, 0x53A4, 0xBC3E, 0xD3C7, 0x4F23, 0x5281, 0x5260, 0x55A0, 0xCC01, 0xCEFB, 0x5342, 0x581F, 0x36F9, 0xD4DC, 0x550C,
    0x4B20, 0xD446, 0x5513, 0x55D9, 0x5345, 0x5484, 0xD25A, 0x5054, 0x545A, 0x5616, 0xD1CA, 0x4FA0, 0xD423, 0x582A, 0x4A7B, 0x5047, 0xD7E2, 0xD424, 0x540E, 0x5279,
    0x4F89, 0x56CA, 0xD14E, 0x5358, 0xD6B7, 0x46F1, 0xD58D, 0x583D, 0x5185, 0x3FED, 0x43C0, 0xD2A2, 0x5436, 0xCF67, 0xD5BC, 0xD441, 0xBD55, 0x4CF1, 0x5028, 0xD55C,
    0xD20F, 0x5401, 0xD235, 0xD5BE, 0x52BD, 0xD7C6, 0x51F1, 0x5217, 0xC5D6, 0x51FE, 0x56C2, 0xCFAF, 0xD0F8, 0x495E, 0x4D73, 0x5588, 0x5502, 0x52A2, 0x56E2, 0xD103,
    0x52D3, 0xCEF4, 0xD07B, 0x564F, 0x4C6D, 0x4118, 0xD4B6, 0xCE9D, 0x4C2D, 0xD5C1, 0xC51F, 0x509B, 0xC1B8, 0x52B6, 0x51E2, 0x4786, 0xD67C, 0xD466, 0x5022, 0x5554,
    0xD443, 0x53D6, 0x5782, 0xCEDE, 0xD683, 0xD383, 0x4F6B, 0xD6C4, 0x4D34, 0xD438, 0xD08B, 0x50E9, 0xD1D1, 0xD396, 0x564B, 0xD40B, 0xCEC4, 0xD409, 0x3E6D, 0xD4F0,
    0xD087, 0x563B, 0xCDF7, 0x57C2, 0xC2B7, 0x52E6, 0x4F20, 0xC933, 0xCEF4, 0xC988, 0xCBA6, 0x546C, 0x5812, 0xD19B, 0x48FC, 0xBE54, 0x490F, 0x4691, 0xD19B, 0x4D42,
    0x384F, 0xCC8C, 0xD312, 0xD12B, 0xD240, 0xC702, 0x540E, 0x4F8B, 0x4C78, 0xD401, 0xCCD0, 0xCCAE, 0xD509, 0x5775, 0x4818, 0xD540, 0x554D, 0x4DFB, 0x4EAB, 0xD635,
    0x5135, 0x4EF5, 0xCCEF, 0x46D2, 0xC01D, 0x4A98, 0x4195, 0x5166, 0x4CFB, 0x3504, 0xD678, 0xD0E4, 0x55E6, 0xCC81, 0xD168, 0xD686, 0x51D1, 0xC708, 0x4654, 0x4BED,
    0x464E, 0x52B1, 0x5520, 0x5561, 0xD360, 0x52F0, 0x5062, 0x4DE3, 0xCF9E, 0x5699, 0xD634, 0xD085, 0x54CD, 0x54AF, 0xD3AF, 0x529C, 0xD1EB, 0x5486, 0x5464, 0x523B,
    0xC622, 0x58E1, 0x55FA, 0xCD4F, 0x43A0, 0xCD7F, 0x5422, 0x54AB, 0x49E7, 0x540F, 0x4BBC, 0x518D, 0xD162, 0xD41E, 0x5506, 0xCCA0, 0x4D5C, 0xD278, 0x47C4, 0xD2F9,
    0x534A, 0xC449, 0x488B, 0xD46D, 0x52A3, 0xCE73, 0xBF15, 0x4ED2, 0xD424, 0x537E, 0x53AD, 0x5335, 0x5464, 0xCD4B, 0x412A, 0xCD64, 0xC9E5, 0xD521, 0x5764, 0x55A6,
    0x54EE, 0xD26E, 0xCDA7, 0xCFD4, 0x526B, 0x572D, 0xD5A2, 0xC095, 0xCC9F, 0xC853, 0xCCD5, 0x5699, 0x5100, 0x40E6, 0x50EC, 0xC7A4, 0x5438, 0x5720, 0x5139, 0x5609,
    0x5352, 0xD1B6, 0x492B, 0x5082, 0xD0B4, 0x4D66, 0xC525, 0xD184, 0x5249, 0x540A, 0x3AE6, 0x4892, 0xCB0E, 0xC8F2, 0xD066, 0xC9D2, 0x512B, 0x4D12, 0xCC60, 0xC512,
    0x52E1, 0x501E, 0xD27B, 0x563C, 0xBC75, 0x202B, 0xCF81, 0x512A, 0xCD0E, 0x55C7, 0x5402, 0x50F5, 0xD45F, 0x52D8, 0xD44C, 0x4B21, 0x50B1, 0x5112, 0x5743, 0x4B01,
    0xD43D, 0xCF35, 0xD2F5, 0xD46C, 0xD3A9, 0x547C, 0x538C, 0xCA68, 0x512E, 0xCA9D, 0xC5AA, 0x529A, 0x4824, 0x5214, 0xD11F, 0x4560, 0x4FF0, 0x5618, 0xCEAF, 0x5274,
    0x5719, 0x413E, 0x4A46, 0x4B89, 0xD441, 0xD583, 0xD133, 0xC4E1, 0x5235, 0x5164, 0x55D6, 0x4C09, 0xCFE5, 0x441C, 0x52F6, 0xD70B, 0xD4D4, 0xC52B, 0x486A, 0x5403,
    0x38A6, 0x54A3, 0xCEC6, 0x5403, 0x5107, 0x4C18, 0xD074, 0x5319, 0xCDFA, 0xCEE6, 0xBAEC, 0xD17E, 0xD167, 0xC6A2, 0xCD39, 0x53AE, 0xD630, 0x485C, 0xD006, 0xC068,
    0xCF7E, 0xCEE9, 0x54F4, 0x51C8, 0xCC34, 0xD054, 0x4A1E, 0xD308, 0xD572, 0xCB15, 0xCAF2, 0xD43E, 0x542C, 0xCC91, 0xC4A6, 0xD522, 0x4C17, 0x57BB, 0x4A4E, 0x5030,
    0x4C8B, 0x4268, 0xD2DD, 0x50B7, 0x532C, 0x4B23, 0xC77E, 0x5548, 0x5023, 0xC81A, 0xCF79, 0x543A, 0x5400, 0xD3E5, 0x4DA1, 0x51C7, 0x5493, 0xD760, 0xD118, 0xD237,
    0x5747, 0x48BD, 0x50E5, 0x506F, 0xD2D2, 0x5248, 0xD1E2, 0xD0F2, 0xCDF6, 0x4CC6, 0xD4AE, 0xD31A, 0xD765, 0x4989, 0xD490, 0x4FED, 0x4273, 0xD503, 0xD6B5, 0xD114,
    0x5545, 0xD1B9, 0xD347, 0x4D00, 0x52DA, 0x4DB2, 0xCF32, 0xCBFA, 0xD124, 0xD3BA, 0x49AC, 0x5174, 0xC909, 0x5132, 0xD51E, 0xCE05, 0xD516, 0x508A, 0x4CC7, 0x531A,
    0xD53F, 0x4B3C, 0x5456, 0xD0D5, 0xD2C9, 0x5458, 0xD18F, 0xD478, 0x50CE, 0x5010, 0x4B6C, 0x51C2, 0x5214, 0xCBCD, 0x4CE5, 0x5417, 0xCA66, 0x5449, 0xD71C, 0x547D,
    0x508D, 0x560B, 0xD3C2, 0xC859, 0x4DED, 0x4C25, 0x5111, 0x4D95, 0xD431, 0xD02D, 0x505A, 0xD4F7, 0x50C4, 0xCE2F, 0xD06B, 0xCE2C, 0xC809, 0x4C94, 0xD587, 0xD051,
    0x566C, 0x53B7, 0x4C76, 0x5429, 0x4FA5, 0x3B25, 0x518D, 0x48E6, 0xCC0F, 0x4380, 0x5351, 0xAC10, 0x4CDB, 0x4DAA, 0x463B, 0xCD18, 0x4E6A, 0xC718, 0x5566, 0xCDAC,
    0x41A9, 0x5586, 0xD05E, 0x4C25, 0xD323, 0xCEB1, 0x565C, 0x5697, 0x5055, 0x4C90, 0x5091, 0x36F0, 0xD205, 0xC804, 0x509C, 0x512C, 0x50F5, 0x4CD7, 0xD538, 0xCC2C,
    0xD24A, 0xCECB, 0xD07D, 0xCC78, 0x5271, 0xD296, 0x4C21, 0xD30B, 0xD263, 0xCEB2, 0x5484, 0xCE42, 0x4192, 0xD1E1, 0x5428, 0x536B, 0xCDCF, 0x4E75, 0xD0E3, 0xD2C6,
    0x5117, 0x4773, 0x49F2, 0x51D8, 0x5005, 0x4680, 0xD277, 0x5435, 0xD408, 0x566C, 0xD35E, 0x4865, 0x4671, 0xCF1E, 0xD452, 0xC84A, 0xC9EF, 0x528A, 0x41F5, 0xCE35,
    0x52CA, 0xB915, 0x5697, 0x49AE, 0x51CB, 0xCD1D, 0xC663, 0xD1DA, 0xD68E, 0xD0DF, 0xD3C3, 0xD29F, 0x5084, 0x4E40, 0xD14A, 0x552D, 0x5294, 0x5258, 0xD342, 0x4A5C,
    0xB834, 0x4857, 0xCEF9, 0xD092, 0x4D3E, 0xC820, 0x56B4, 0x4E5E, 0xCC0A, 0xD0A2, 0x5786, 0x47CF, 0xD160, 0x54A0, 0xD19C, 0xD5BB, 0x4E5F, 0x5416, 0x40DD, 0xCCCC,
    0xD55D, 0xD067, 0xD39C, 0x4F31, 0xD0FB, 0x50D7, 0xD568, 0xD54F, 0x549E, 0x5289, 0x5332, 0x4E6F, 0xD15E, 0x552C, 0xCF41, 0xCFCE, 0xC440, 0x5418, 0xD0DB, 0xC881,
    0x53BC, 0xCE20, 0x521C, 0x5614, 0xD0FD, 0x52D4, 0x51CD, 0xC68D, 0x3E1B, 0x561B, 0xC683, 0xC80F, 0x436C, 0xD2FA, 0xCDC7, 0xCC0F, 0x44CF, 0xD3D8, 0xC733, 0xCBD9,
    0xD327, 0xBD81, 0x52C6, 0x51E3, 0xCE45, 0x5491, 0x35B4, 0x3B91, 0x5414, 0xD163, 0xC93C, 0xCCC5, 0x5329, 0x4321, 0xBCB6, 0x4D08, 0xD3CF, 0xCBB9, 0x5019, 0x53D8,
    0x5638, 0xCDFF, 0x5126, 0x4FC5, 0x4F84, 0x5524, 0x3C85, 0xCCAE, 0xC629, 0x4E54, 0x542A, 0xD16D, 0x555D, 0xCD80, 0xD402, 0xCEE7, 0xD4BF, 0xD334, 0xD314, 0x43D2,
    0x50A1, 0x3D5C, 0xD693, 0x4D04, 0xD1B8, 0x4D90, 0x4FD2, 0x4B5E, 0xD18B, 0xCCEE, 0xCD01, 0xD393, 0xD399, 0x5705, 0x5441, 0xD48D, 0x5510, 0x52C2, 0x4FE3, 0xD4E9,
    0x4E2C, 0x5070, 0xD4F7, 0xD3B2, 0xCD56, 0xCA27, 0x5125, 0x5187, 0xC386, 0xD230, 0xD4AC, 0x4935, 0x573F, 0xCEE7, 0x40AC, 0xD08D, 0x4EDD, 0x4CDB, 0x53E8, 0xD5AC,
    0x52DC, 0x569F, 0x550A, 0x3E7A, 0xCC25, 0x4D38, 0x5212, 0x51A7, 0x3505, 0x56BE, 0xCFAA, 0xCCC9, 0xD16D, 0xC191, 0x4D19, 0xD7A5, 0xD428, 0x4DCA, 0x51AC, 0xD6A0,
    0x4DEB, 0x51DF, 0xD44E, 0xD1C0, 0xD4F6, 0x54F0, 0xD197, 0xD2FF, 0x4266, 0xCE96, 0xCEAD, 0x5425, 0xC2C5, 0xC6A4, 0x4462, 0x519F, 0x4B33, 0x4F06, 0x5298, 0xCE11,
    0xCA7D, 0x528D, 0x5760, 0x575E, 0xCD1B, 0x5312, 0x49A4, 0xC352, 0xD092, 0x52A1, 0x4A74, 0x52A3, 0x4D6E, 0xD075, 0x50A2, 0x526C, 0xCC34, 0xD4DB, 0xD254, 0xC8CB,
    0xD61D, 0xD453, 0xCE00, 0x542E, 0xCC21, 0xD2B1, 0xD52F, 0xD636, 0xD8E6, 0x5718, 0x4C4F, 0xD1E1, 0x51D7, 0x5501, 0xC8A8, 0xD4EA, 0xC351, 0xCCC4, 0xD089, 0xC678,
    0x5282, 0xC912, 0xCE68, 0xD055, 0x46B8, 0xD618, 0x48BF, 0xD062, 0xCB06, 0x50C7, 0xD4ED, 0xBFFD, 0x443B, 0xD027, 0x5384, 0xD7A9, 0x54D7, 0xD298, 0x5548, 0xD6ED,
    0x496E, 0xD0DC, 0xBCB3, 0xD09E, 0x531B, 0x531C, 0x45F2, 0x4F12, 0xD57F, 0xB55F, 0xD08F, 0x45F2, 0x5668, 0x521F, 0x43C9, 0x515C, 0xD5FD, 0xC16F, 0xD257, 0xCD71,
    0x500D, 0xCD68, 0x507F, 0x50A2, 0xD487, 0xCCC3, 0x5155, 0xD1E1, 0x517C, 0xCB69, 0x5276, 0x5027, 0xD2AF, 0x56DA, 0xD0CC, 0xD3A5, 0x50F8, 0x5360, 0x51AD, 0xCC89,
    0x5275, 0x4DBF, 0x540A, 0xBA0F, 0x5138, 0xC820, 0x415A, 0xCC6B, 0x4B97, 0xD3AA, 0x5605, 0x3143, 0xCC61, 0x59E4, 0x4DEE, 0x523D, 0x524D, 0x44E8, 0xD655, 0xC063,
    0x545C, 0xCB36, 0x4C8B, 0x4C56, 0x4C82, 0x5182, 0x5748, 0x54A0, 0xD16B, 0xD2D5, 0xD0EA, 0x540B, 0x4CFB, 0x50E3, 0xC623, 0xD4A6, 0x4D8F, 0xBDDD, 0xD00E, 0x518F,
    0x4DAB, 0x44B8, 0xCC86, 0x4EF3, 0x4F4E, 0xD62F, 0x5385, 0xC309, 0xD533, 0x5105, 0xD1B0, 0x58EE, 0x4E88, 0x511C, 0xD104, 0xD2EC, 0x577C, 0xC237, 0xCF07, 0xC844,
    0x48BB, 0xC89B, 0xD158, 0x457A, 0x562C, 0xD007, 0xC45D, 0x5079, 0xD007, 0xD368, 0xC8EA, 0x4C22, 0x55CB, 0xD422, 0x5133, 0xD274, 0xB7D0, 0xD2B6, 0xD48A, 0xCCD3,
    0x4C09, 0x527D, 0xCBD7, 0x4687, 0xCF05, 0x5003, 0xD5D0, 0xD399, 0x4E61, 0xD4C6, 0xD03B, 0x57DD, 0xD0D3, 0xCEFA, 0xD828, 0x464D, 0xD1E7, 0xD89B, 0xCCB9, 0x50EB,
    0x4C19, 0x45B4, 0xD0FA, 0x4C33, 0x48B9, 0x5497, 0xD819, 0xC975, 0x4AC1, 0xD5C8, 0xCA9A, 0x565B, 0xC78D, 0x4D67, 0x563E, 0x4EA5, 0x5356, 0x46EB, 0xD1D9, 0x485C,
    0x5498, 0xD6BE, 0x54F1, 0xC944, 0x53B6, 0xCDAB, 0x4B5D, 0x4D58, 0x512F, 0x5133, 0x50CD, 0x5437, 0x40A3, 0x5889, 0x41A4, 0xC7A3, 0xCCD3, 0xD6E4, 0xD226, 0xCA4E,
    0xD76F, 0x4DB5, 0xD6E1, 0xD5F7, 0xD0D8, 0xCB93, 0xD162, 0x5431, 0xB357, 0xC4CB, 0x54B6, 0x4F7F, 0xCC9B, 0xC74F, 0x3CBA, 0x589D, 0x50A2, 0x5247, 0xD2A4, 0x56BA,
    0xC440, 0xD592, 0x5426, 0x4D14, 0xD3BF, 0xCD0C, 0x5312, 0xD5F7, 0x53E3, 0xD0D0, 0x52E0, 0xD330, 0xD56F, 0xC5E4, 0xCB0A, 0xCD4E, 0x51BB, 0xCC26, 0xCB4A, 0xD0B3,
    0xD021, 0xCEF1, 0x5623, 0xCBD6, 0x4FAB, 0x52FC, 0xCDA1, 0x5086, 0xD860, 0xCDDA, 0xCFF8, 0xD0C1, 0xD17A, 0xD6CD, 0xD567, 0xD441, 0xD705, 0xD4C5, 0xC7F6, 0xCE00,
    0xCE86, 0x5089, 0xCE22, 0xCFEB, 0xCF30, 0xC4DB, 0x542D, 0x5106, 0x3C21, 0x4B34, 0x558F, 0x4A70, 0x4C86, 0x50F8, 0xD2EB, 0x4AF8, 0xCEBC, 0x522D, 0x4F28, 0x4E9B,
    0xC6F3, 0xD567, 0x442F, 0xBD0E, 0xCD7E, 0x4FDA, 0xD047, 0xC35F, 0x5022, 0x5190, 0x533B, 0xCDD2, 0x5515, 0xB5F7, 0xD541, 0xCAB1, 0xB978, 0xC950, 0xD126, 0x53D8,
    0xD928, 0xD6B6, 0xCBB0, 0xCE24, 0x55D3, 0xD247, 0xC16A, 0x4DD1, 0xD1C9, 0xD252, 0x536F, 0xD19A, 0x518F, 0x4F06, 0xD1BD, 0x522F, 0x47F4, 0x5020, 0xD04C, 0x54EA,
    0x4E2A, 0x4A9A, 0xD595, 0x4F47, 0xC855, 0xD32C, 0xD292, 0x4C17, 0xD688, 0x51DF, 0xC6C1, 0x4F10, 0xD270, 0xD4AF, 0xD58D, 0x4E1E, 0x570B, 0xD53D, 0x502F, 0x461A,
    0x5385, 0xD10E, 0xD3C5, 0x570A, 0x54CB, 0xD695, 0x576C, 0xC546, 0x4C4A, 0xD024, 0x5493, 0xCDD1, 0xCF5B, 0xBFBB, 0xD18E, 0xD169, 0xC51E, 0x4CC1, 0x4132, 0x5480,
    0xC4CC, 0xCAD4, 0x4A5C, 0xD41D, 0x4DE0, 0x4493, 0x46EA, 0xD03E, 0xD421, 0x54EB, 0x4D4C, 0xD773, 0xD2E7, 0x543A, 0xCE7D, 0xD485, 0xD04A, 0x557D, 0xCC8F, 0x51D9,
    0xD4A9, 0x553B, 0xCA66, 0x55D9, 0xC9BF, 0x4C2A, 0xC41A, 0x4B20, 0x4CB8, 0x5475, 0x51B7, 0xD440, 0x53F9, 0xD43B, 0x553A, 0x5442, 0xD19D, 0xCD95, 0x5217, 0xCFD8,
    0x38B0, 0xC7A9, 0x502E, 0xD22B, 0xD095, 0x4D40, 0xD0E5, 0x5340, 0xD22D, 0xCAE4, 0xD175, 0x52CE, 0xD2EB, 0xBD30, 0xD524, 0x5511, 0xD2DA, 0x5880, 0xD0A7, 0xCE7C,
    0xCB34, 0xCCB6, 0x4C5D, 0x44B5, 0xD6CC, 0x5426, 0xBE33, 0xD31B, 0xD3B7, 0xD2B6, 0xD7B8, 0x430F, 0xD404, 0xC994, 0x3E7D, 0xD1DD, 0x4346, 0x397C, 0xD367, 0xCECE,
    0x5004, 0x51E0, 0xD5BA, 0x5322, 0xCA82, 0xD3F6, 0xD267, 0x5348, 0x57C4, 0xCE9F, 0xCF9D, 0x514C, 0x53EB, 0xC880, 0xD2A2, 0x548B, 0x47E6, 0xBB5F, 0xCEF2, 0xC763,
    0x4F09, 0xBAB6, 0x4C63, 0x4D23, 0xD12A, 0x562A, 0x54D2, 0x509A, 0xD028, 0x5068, 0xD2A5, 0xD4CE, 0xD051, 0xD403, 0xCB98, 0xD1F9, 0xD4B9, 0x52B1, 0x4AD6, 0xCE41,
    0x4F87, 0xD23C, 0xC2AD, 0x5485, 0x5247, 0xC951, 0x54B8, 0x5545, 0x5269, 0x5470, 0x52DE, 0xD44A, 0x507E, 0x52C3, 0xCEED, 0x50BF, 0x4CC6, 0xD320, 0x56EB, 0xCD18,
    0x4A22, 0x5325, 0xD175, 0xB5D3, 0xD1E7, 0xD228, 0x52ED, 0xD0B1, 0x53F6, 0xD59E, 0xD54C, 0x52FC, 0x4B41, 0xD1AA, 0xCC4A, 0x5384, 0x4D68, 0xBA7C, 0x51A6, 0xCE75,
    0xCB13, 0x4D55, 0x4EC8, 0x484C, 0xD308, 0x53B9, 0xCA52, 0xCEA1, 0xD02F, 0x50A1, 0xCBCA, 0x55AD, 0xCA5E, 0x51B0, 0x5607, 0xD2C5, 0x50F7, 0xD0A3, 0x5610, 0xCB48,
    0xCDA1, 0xD0E8, 0x440E, 0x5290, 0x4DDE, 0x524B, 0xD468, 0xC8E2, 0x56C7, 0x44D7, 0x46A5, 0x48D4, 0x5161, 0x40BE, 0xD628, 0xD279, 0x4D94, 0x54A5, 0xD4DF, 0xC259,
    0xC88F, 0xD138, 0xD0D1, 0x54E8, 0xD020, 0xD198, 0x4D7E, 0x4C34, 0xB241, 0x4D81, 0x3D1B, 0xD2DF, 0xCA72, 0x5125, 0xD4B9, 0xC438, 0xCFFC, 0xD054, 0xD153, 0x53BC,
    0x504F, 0x4E78, 0xD38A, 0xCD6E, 0xD4D0, 0x5386, 0xCF9B, 0x5488, 0x49ED, 0x552E, 0x51FE, 0xD14B, 0xCCC2, 0xD032, 0xD3FD, 0x53B0, 0x5492, 0x5046, 0x5057, 0x53AB,
    0x4A1A, 0xD271, 0x54CF, 0x4EA1, 0x4C25, 0x4595, 0xD137, 0xD0FF, 0xCD06, 0xC94D, 0x5414, 0x5465, 0xD459, 0x4EAC, 0xD432, 0xD596, 0xCF06, 0x4109, 0x53F7, 0x52CA,
    0x4DF7, 0xD587, 0x4FE2, 0x5498, 0xCDE8, 0xD189, 0xC886, 0x4D24, 0xD46D, 0xC59C, 0xC96F, 0x53C0, 0xCFFC, 0xD4A7, 0xD4C2, 0xD907, 0x546B, 0xBB2F, 0x3D5F, 0xCA24,
    0xC89A, 0x4ED2, 0xD080, 0x5429, 0x528F, 0x54C6, 0xCD88, 0xCD0D, 0xD2E1, 0x551C, 0x4EDD, 0xC3F4, 0xCE7D, 0xD55D, 0x4920, 0xD0D2, 0x50AD, 0xC9EC, 0xCDDD, 0xCF80,
    0x4C8C, 0xD6B2, 0x5057, 0x52B7, 0xCDDD, 0xD086, 0xCC88, 0xBE62, 0x392E, 0xC5C3, 0x543F, 0x48A9, 0xD2F8, 0x4D4E, 0x4CCE, 0xD25E, 0xCC7E, 0x4C5B, 0x4EDC, 0xD40D,
    0x3C68, 0x50D2, 0x4210, 0xD203, 0x4A92, 0xD0CC, 0x4828, 0x5139, 0x53A7, 0xCEF8, 0xD216, 0xCC59, 0xD3DD, 0xCE13, 0xC4AF, 0x4E2E, 0x528B, 0x5584, 0x4EBD, 0xC52D,
    0x54A7, 0x5699, 0xC708, 0x4F23, 0xCDCC, 0xD579, 0xBFEA, 0xD40A, 0xCE1C, 0xD58A, 0x5128, 0xD230, 0x549E, 0xCAE1, 0xD4BF, 0xD092, 0x5145, 0xD409, 0xCB8A, 0xD4CC,
    0xC86A, 0x4FB2, 0x518E, 0x51FA, 0xD277, 0xD62F, 0x515C, 0x459D, 0x545B, 0x5115, 0xC44C, 0xC614, 0x57CD, 0x5050, 0xCC75, 0xD0EC, 0x4D95, 0x5071, 0xD5C9, 0x4C8C,
    0x510B, 0x5524, 0xCB89, 0xD292, 0x5145, 0x4B94, 0x4FDA, 0x450D, 0xD4D2, 0xCD6E, 0x4CF6, 0xD410, 0xC8B8, 0xC6EE, 0xD04D, 0x3C42, 0xC9D3, 0x529B, 0xCB7B, 0xD10D,
    0x57F6, 0x54FF, 0x4A32, 0x5629, 0x4C98, 0xD19A, 0x5096, 0x50F4, 0xCEA6, 0xCFAF, 0x51E4, 0xBDD5, 0x479D, 0x47A3, 0xCCB6, 0x4C9C, 0x51E6, 0x4984, 0x54F8, 0xCF75,
    0x4C51, 0x548A, 0xCFA2, 0x41C4, 0xD339, 0x4E87, 0x5473, 0x548B, 0x555E, 0xC483, 0x52CD, 0x4FD7, 0xD3B7, 0x4D6A, 0xC5DA, 0x4D6F, 0x4D00, 0xCD75, 0x50F1, 0x50BF,
    0xD200, 0xCFF3, 0x562B, 0xD428, 0x5088, 0xD5C2, 0x4C95, 0x4394, 0xD0DC, 0x57BD, 0x41E6, 0xB45D, 0xC7F6, 0x46FA, 0x54BE, 0xD035, 0xD180, 0xC41C, 0x4928, 0xD275,
    0x5478, 0xCDA5, 0x4D0A, 0xCFFF, 0xCA7D, 0xD062, 0xBAC1, 0xC55F, 0xD5EA, 0x57B9, 0xD26B, 0x5139, 0x512A, 0x4D25, 0xCE2E, 0x472F, 0x565A, 0xD1D8, 0x4C99, 0x4F07,
    0xCEEE, 0x4F05, 0x5092, 0x5553, 0xC0F5, 0xCDDF, 0xCB9A, 0x5058, 0xD34E, 0xD1E8, 0xCCD9, 0xC8C0, 0x4E4D, 0x5707, 0xD3A5, 0x493E, 0x543D, 0x486C, 0xD80E, 0x562A,
    0xCB87, 0xCC0E, 0x4212, 0x5155, 0x54B2, 0x4AC6, 0x4AA3, 0x4F06, 0xC57D, 0x4DE0, 0x50E9, 0xCF58, 0xD25A, 0xD091, 0xD113, 0x45A9, 0x5115, 0x4D11, 0x4DF1, 0xCB2C,
    0xD4E2, 0xD54C, 0xD053, 0xD47C, 0x55F3, 0xCEF5, 0xCDD0, 0xC0A5, 0x480E, 0x4920, 0x54CF, 0xCF78, 0xCCF0, 0x3EEC, 0x4D16, 0x3A77, 0x559B, 0xD24E, 0xD2E7, 0xCEDB,
    0xD14C, 0x5248, 0xD5CB, 0xD05B, 0x48CA, 0x524C, 0xD16F, 0xD51A, 0x543A, 0xCD6B, 0x5114, 0x47AB, 0xD1F4, 0x51CE, 0x50A2, 0xCDDB, 0xCD0E, 0x4809, 0xD2B2, 0x55FC,
    0xD0EC, 0x546C, 0x4F22, 0xD589, 0xD6BA, 0x4D0E, 0xC8AD, 0x4CB2, 0x4CE8, 0x54D0, 0xCE23, 0x508B, 0x4C49, 0xCF20, 0xD33C, 0x505D, 0xCCA9, 0x4E3A, 0xC9A4, 0x5144,
    0x56DD, 0x545E, 0x4C3A, 0x50CC, 0x48CF, 0xCF26, 0xD606, 0xD013, 0x40F4, 0xC6B5, 0x5117, 0x56EF, 0xD353, 0x4C18, 0xD5A2, 0xCC32, 0xCD16, 0x51F0, 0xC7A6, 0x5245,
    0xD24F, 0x48FD, 0x44DE, 0xD294, 0xD2D4, 0xD28E, 0x5010, 0x44D7, 0xD41C, 0x5155, 0x4D6E, 0x5305, 0x527C, 0x5358, 0x50EE, 0x5510, 0xD2CB, 0x5880, 0xD494, 0xC405,
    0xB989, 0xD13F, 0xCC03, 0x5072, 0xD3B6, 0x5455, 0x538B, 0x5137, 0xD04C, 0xC1FC, 0x5732, 0x51FB, 0x5568, 0xCB57, 0xD1A3, 0xD119, 0x53D4, 0x5522, 0x4FD1, 0xD35F,
    0x4EBB, 0x4CE6, 0x4810, 0x53DC, 0x4C0B, 0x5219, 0x500F, 0x50FE, 0xD693, 0xCC95, 0x47E0, 0xD6E0, 0x5304, 0xCEDF, 0xD7CA, 0xD6DF, 0xCFDF, 0xD25D, 0x546B, 0x5300,
    0x4E6F, 0x4E54, 0x4DB2, 0x4BA4, 0xD5AD, 0xD0E1, 0xD5C3, 0x4F09, 0x46CA, 0x4BF6, 0xCA1B, 0x4909, 0x4BF3, 0xD041, 0xCD1E, 0x553C, 0xBDEC, 0xD023, 0x5188, 0xD38F,
    0xC03E, 0x4659, 0x4C35, 0xD459, 0xD002, 0xC76B, 0xC796, 0x52C6, 0xC444, 0xD419, 0x4EBE, 0x55AD, 0x5804, 0xD457, 0xD16B, 0x4CFB, 0xD6C9, 0xCE56, 0x50B1, 0x5136,
    0xCD31, 0xBCB6, 0x4BD9, 0xD343, 0x4F7A, 0x5175, 0xCE03, 0x3DFF, 0x4D83, 0xCD01, 0xD8CF, 0x3DF7, 0x5226, 0xD6D8, 0x4E3B, 0x5416, 0x51CA, 0x5521, 0xD460, 0x5401,
    0xCC77, 0xD5E2, 0x50D7, 0x4FFC, 0xD293, 0x4F20, 0xC53C, 0xD43A, 0x55A7, 0x4A53, 0xD21E, 0xC848, 0xCFCF, 0xC662, 0x533B, 0x53BF, 0x571C, 0x53B7, 0x5507, 0x54C0,
    0x4FEE, 0xC5E7, 0x5427, 0x5127, 0x54F4, 0x539F, 0xD18C, 0x4E93, 0xCC09, 0x519F, 0x40D7, 0xD199, 0xD136, 0x53F2, 0xD4EA, 0xD655, 0x46F2, 0x485A, 0x5130, 0x53E4,
    0xD40F, 0x4C73, 0xD2FC, 0x45B2, 0x3CCB, 0x4841, 0x5269, 0xD0B0, 0xD2B3, 0x5150, 0x53E4, 0x5504, 0xD1A2, 0x4C51, 0x4C8F, 0x4C58, 0x4ECD, 0x5814, 0xCE76, 0x562A,
    0x3B36, 0x4B7B, 0x53BB, 0xC421, 0xD232, 0xD1DA, 0xD554, 0x4150, 0x4787, 0x53FD, 0x4E6D, 0x41F9, 0x5131, 0x4C43, 0x51EF, 0x48C6, 0xCE85, 0x5307, 0x4E4E, 0xCDBE,
    0xCCB1, 0x4CEE, 0xD566, 0x5439, 0xD09F, 0x5540, 0xD3BA, 0x5112, 0xD4B9, 0x5046, 0x4D6D, 0x5331, 0x4BAD, 0xD22D, 0xD039, 0xCE7F, 0xD87C, 0xC391, 0x50EB, 0x4D81,
    0xCA53, 0x4D68, 0x5613, 0x49E6, 0x5276, 0xCBE0, 0x51FB, 0x5530, 0x4148, 0xCC5C, 0xCAE9, 0x52DE, 0x4B9E, 0xD715, 0x4FEC, 0x41D0, 0xD262, 0x507C, 0xD5F6, 0xD58C,
    0xD087, 0x4D11, 0x56B6, 0xD21B, 0x4FC9, 0xD633, 0xCD51, 0x5436, 0xD4D0, 0x5218, 0xCB39, 0xCC14, 0xCBA7, 0x564B, 0xD21B, 0xD42A, 0xD11C, 0xCC60, 0xD06A, 0xD4AD,
    0x4C6E, 0xCC37, 0x4E17, 0xD68C, 0xD3F5, 0xC67A, 0x4FBD, 0xD573, 0xD4C3, 0xD1AB, 0xD673, 0x5880, 0x410B, 0x50D5, 0x4BB0, 0x4F3A, 0x4DAE, 0xD385, 0xC935, 0xCFB8,
    0xCA92, 0x5011, 0xCF3B, 0xD452, 0xD0A1, 0x51AE, 0xC8D2, 0xD642, 0x5265, 0xD13D, 0xD473, 0x51F3, 0xD1D9, 0xD42A, 0x5183, 0xD084, 0x536E, 0xD3D8, 0x54CF, 0xD78C,
    0x5174, 0xCBCF, 0x3F59, 0x4DD7, 0xC91F, 0xD4ED, 0x4D4E, 0x505E, 0xCFA6, 0x4D46, 0xD48B, 0x4A5B, 0xD4F8, 0xBF08, 0x5391, 0x5016, 0xCE89, 0x512C, 0xD5F5, 0xD218,
    0xD257, 0x51DD, 0x4B3F, 0xD36E, 0x4E56, 0xC72D, 0xD1FD, 0x50A7, 0xCCC5, 0x5335, 0xCE01, 0x55AA, 0x4652, 0x5582, 0xD010, 0x48FC, 0xD229, 0xCF92, 0x5666, 0x557D,
    0xD39F, 0xCFE0, 0xD189, 0x4CFB, 0x509C, 0xD506, 0xCC9D, 0xD181, 0xC225, 0xD1D5, 0x51FB, 0x5334, 0x4476, 0xD150, 0xD2B8, 0x4E73, 0xD5AF, 0x557E, 0x4C09, 0x46F5,
    0xD462, 0x4529, 0xD4C7, 0xD202, 0x3EC4, 0xCE07, 0xD485, 0x50DE, 0xCEFE, 0x5650, 0xC4B5, 0xCDCB, 0x4DDB, 0x513D, 0x4A99, 0x5487, 0xC469, 0xD4B1, 0xC73C, 0xBC5C,
    0xD7A8, 0x4E5D, 0x5061, 0xCF30, 0x4BB7, 0x57BA, 0x545D, 0x53B4, 0xD2FA, 0x4556, 0xC8F4, 0xD481, 0x519C, 0x5560, 0xD651, 0x504E, 0x48E3, 0xD6B7, 0xC2D1, 0x5627,
    0xCDFD, 0x4EE4, 0xD672, 0xD372, 0x542F, 0xC665, 0x5258, 0x4E0E, 0xD350, 0xCB55, 0x510B, 0x4E31, 0xC726, 0x530E, 0xC86A, 0x4834, 0x4D83, 0x50DC, 0xBB45, 0x53CB,
    0x4FC7, 0x55B1, 0xC9D8, 0x5441, 0xD3DD, 0x5447, 0x35C5, 0xCED6, 0xD069, 0xD14A, 0xCA78, 0xD123, 0xD687, 0x575C, 0xD669, 0xC5AA, 0xD45D, 0x4E35, 0xC8F6, 0xC5F1,
    0xCE7B, 0x52AF, 0x4D46, 0x5614, 0x4DBA, 0x52E2, 0xD4E7, 0x5819, 0x4E1B, 0x4E3A, 0xC2BC, 0xD425, 0xCC87, 0x517E, 0xD19F, 0x4928, 0x5631, 0x5456, 0x54E4, 0x4ED6,
    0xD64E, 0xC5E7, 0xD123, 0xD5F4, 0x4DAD, 0x50DE, 0xD06E, 0xC825, 0xD0B6, 0xD40F, 0x51B9, 0x52C6, 0x4B46, 0xD542, 0xD517, 0x54EE, 0x4F7C, 0x4BF6, 0x3FFE, 0xD1BE,
    0x4342, 0xCEF0, 0x511C, 0x52A3, 0x4AA2, 0x4EA6, 0x4FED, 0x4E03, 0xCD05, 0xAD10, 0xD28B, 0x5049, 0xC9FA, 0xD633, 0xCEFF, 0xC9E3, 0xCA84, 0x4C5B, 0x50D5, 0x5090,
    0xD188, 0xD0C4, 0x5656, 0x5330, 0xD2BE, 0x5549, 0x44B3, 0x51E5, 0x544F, 0xC9BF, 0xCA0A, 0x4AEE, 0x5438, 0xD04A, 0x4F11, 0x46FA, 0xD4FD, 0x52E1, 0xC905, 0x4F7A,
    0x51BF, 0xC513, 0x4B5E, 0x53A2, 0xCE74, 0x4DA8, 0x5076, 0xD0DF, 0xC2DA, 0x4485, 0x541E, 0xD01E, 0xC70E, 0xD2E1, 0xD42D, 0xD182, 0x4EC3, 0x55FD, 0x4F89, 0x513B,
    0xCB4D, 0xB221, 0xC43E, 0x542C, 0xD4B6, 0x4B8E, 0xD1AB, 0xD389, 0xD1F3, 0x4FD4, 0xD3F7, 0xD1AC, 0xD3DF, 0x47D4, 0xCC88, 0x4087, 0xCF84, 0x52F3, 0xD3A4, 0xCB3F,
    0x5259, 0xD448, 0x48C5, 0x4741, 0x512A, 0xCCB2, 0x523D, 0xD5BB, 0xCAFD, 0xC24F, 0xC841, 0x5186, 0xD6F2, 0xCE99, 0x53A2, 0xD0DA, 0xCB66, 0xC51A, 0x4F9E, 0x5779,
    0x4DE0, 0x4B6C, 0xCE74, 0xCE19, 0x5054, 0xD553, 0x5637, 0xD3D1, 0xD1E0, 0x4DFD, 0xD693, 0xC8DC, 0xC9B3, 0xC7B1, 0x4A74, 0xC009, 0xD39C, 0xC9EC, 0x5090, 0x4A4B,
    0x54DB, 0x57B7, 0xC431, 0xD4B5, 0xC272, 0x5402, 0xCF5D, 0xD53C, 0xD2CF, 0x543D, 0x50E9, 0xD5CE, 0xD363, 0xBA85, 0x4D02, 0xD4E3, 0x4EB8, 0xCCE8, 0x5342, 0xD17B,
    0xD045, 0xCCD2, 0x5737, 0x4CA9, 0x4B36, 0xD3D6, 0x48C3, 0x46B3, 0x5437, 0xC6D7, 0x53EC, 0x567F, 0xD283, 0xCF77, 0x4F46, 0xC178, 0xD0C3, 0xD1B5, 0xD2D4, 0x505C,
    0x5275, 0xD54F, 0xD839, 0x4CE9, 0xCD01, 0x5505, 0xCA76, 0x501D, 0x4985, 0x540F, 0xCCF4, 0xD016, 0xD174, 0x4993, 0x4D90, 0xD3EF, 0xD4DC, 0xD4FF, 0x462D, 0x4243,
    0xD2EC, 0xCF7A, 0xCE91, 0x53B1, 0x54A1, 0xD011, 0xD2A3, 0xD304, 0x5129, 0x52E3, 0xD46D, 0x5084, 0xD570, 0x4DE7, 0xD3D1, 0x30DD, 0x5009, 0xC540, 0xD621, 0x4898,
    0xBDF8, 0x4CF9, 0xD2F5, 0x55B2, 0x49D9, 0x4BC1, 0x4AE5, 0x56D4, 0xBF79, 0x5456, 0x510B, 0x4FD7, 0xD4C7, 0x4BC0, 0x5260, 0x52F0, 0x4523, 0x52B8, 0x48B9, 0x515D,
    0x5029, 0x499F, 0xD49F, 0x4903, 0xCF6C, 0xC949, 0xD1AB, 0xCA78, 0x3E3A, 0xD151, 0x5451, 0xD646, 0xC4B7, 0xD461, 0xD69B, 0xD127, 0x52DA, 0x52A4, 0xCAA7, 0x4E16,
    0x4954, 0xD427, 0x53E4, 0x4006, 0xCA4B, 0xCE05, 0xCECB, 0x3A42, 0x3F8D, 0x560C, 0x54B5, 0x4F78, 0xC8C7, 0x5146, 0xD3A1, 0xD121, 0xCC6E, 0x5486, 0xC9E0, 0xC663,
    0xC4A8, 0xCA65, 0x4F7F, 0xCC6F, 0xCE5C, 0xD5F9, 0x48E7, 0xD11A, 0xB266, 0xC6F3, 0xCEE2, 0x52F4, 0x541E, 0x56B7, 0x4C63, 0xD224, 0xC3E6, 0xC833, 0x4E32, 0x53FC,
    0xD80A, 0xD270, 0x4F36, 0xD60E, 0xCDA5, 0x47AF, 0xD56C, 0x52E4, 0x4921, 0x5389, 0xD7B5, 0xD2E0, 0x5132, 0xD0EA, 0xCC77, 0xD628, 0x52E9, 0xD015, 0x52AD, 0x52BD,
    0x51D6, 0xBF10, 0xD20C, 0xD506, 0xCD92, 0x4CAD, 0xCB9B, 0x5007, 0xD38E, 0xD429, 0x4DA7, 0xD52C, 0x4DBC, 0xC530, 0x4E7A, 0x4BC4, 0x4C23, 0x51AF, 0x3917, 0xD155,
    0x486F, 0x4CCD, 0x4FEC, 0xD17D, 0xD26A, 0xCAF1, 0x452D, 0xD2E0, 0xCEF1, 0xC8B5, 0xD44D, 0xD3BC, 0xD519, 0x5585, 0x519B, 0xCD6F, 0x4CCA, 0x4167, 0xCC6F, 0xD1BC,
    0xCD80, 0x55BA, 0xD7F9, 0xCA8B, 0xC0A2, 0x548C, 0x4973, 0x56CB, 0x4F05, 0x4972, 0x501B, 0xB464, 0xD459, 0xD1A2, 0x5445, 0xD425, 0x49E5, 0x4A47, 0x5870, 0x535C,
    0xD63D, 0x53D2, 0x543C, 0xD44B, 0xD45D, 0xC2A6, 0x5221, 0x53E9, 0x53B4, 0x5149, 0xD050, 0x50D2, 0xCE70, 0xC93E, 0xD159, 0x4CDD, 0xD475, 0x5070, 0xD122, 0xCD9C,
    0x4830, 0xD157, 0xD1FF, 0x575A, 0xD80B, 0x4EF9, 0xC95D, 0xD476, 0xD58F, 0x5561, 0x4F99, 0xD020, 0xD35B, 0xCDE5, 0x4EBA, 0xBA2F, 0xD50A, 0x5400, 0xC19B, 0x4A30,
    0x507A, 0x4FDD, 0xD127, 0xD0F9, 0x5414, 0xC37B, 0xD44D, 0x5179, 0xD3CD, 0x464F, 0xBEE5, 0xC908, 0x51A5, 0xC717, 0x561D, 0x5643, 0x534C, 0x5118, 0xCED9, 0xD099,
    0xD0B6, 0xD09E, 0x5162, 0x4E4F, 0x5290, 0x5509, 0x4675, 0x5631, 0xD050, 0x4413, 0x497D, 0x554A, 0xCECE, 0x51B0, 0x54ED, 0xC926, 0xD6FE, 0x483E, 0x4384, 0xC4A8,
    0xCFC0, 0x4C5D, 0x54C7, 0x4E55, 0x51BD, 0xC939, 0x5076, 0x501D, 0xD504, 0x544B, 0x50CB, 0xD428, 0xCC8E, 0x5739, 0xCC55, 0x55F1, 0xCAD3, 0xD52D, 0xCDEA, 0x5616,
    0xC9FE, 0x4F45, 0xCC22, 0xD56F, 0x52BA, 0xCA9D, 0x56EF, 0xD335, 0x477F, 0xCFA9, 0x5722, 0xD090, 0xC8A2, 0x56EC, 0xCF3B, 0x522D, 0xD0E4, 0x5374, 0x502A, 0x54F7,
    0x4F07, 0x4774, 0xCF0F, 0xC8D2, 0x4F0C, 0x5106, 0x4D1C, 0xC23F, 0xD049, 0x5173, 0x501B, 0xD0FD, 0x41B7, 0xD1B5, 0xD159, 0x5534, 0x487C, 0xCB84, 0xCCE6, 0xCD37,
    0x4C59, 0xCA8A, 0xD029, 0xD0D3, 0xD062, 0xCB4E, 0x4B70, 0x4AA9, 0x4DD7, 0x51C8, 0x553B, 0x4D4E, 0x53DF, 0xCD0E, 0xD106, 0x4F4E, 0x5401, 0xD46E, 0xD513, 0x507C,
    0x56C2, 0x560F, 0x4DE0, 0x548C, 0xD052, 0xD3AF, 0xD137, 0xCD59, 0x4C52, 0x44A6, 0x56A9, 0xD482, 0xD279, 0x4BA6, 0xD1CE, 0xD641, 0xC5B2, 0x52F8, 0xD456, 0x45B8,
    0xD4BF, 0x4F1B, 0xD14C, 0xD6DA, 0xD505, 0xD63D, 0x53ED, 0xCE81, 0xD277, 0xC40F, 0x485B, 0x4A29, 0x4E83, 0x4C79, 0x500C, 0x54EF, 0x4CF2, 0x5440, 0xCBBA, 0x5221,
    0x54A4, 0x55AA, 0x4F1B, 0xD189, 0x4D69, 0xD1A9, 0xD010, 0xD217, 0xD108, 0x48FC, 0x3E49, 0xBDAE, 0x510C, 0x5692, 0xD417, 0xD227, 0xC43B, 0xCA68, 0x4C41, 0x5125,
    0x54BB, 0x542D, 0xCF11, 0x4A95, 0x4276, 0xD05F, 0x488B, 0x4C0C, 0x4B0F, 0xD387, 0x50BF, 0xD0A3, 0x4AF8, 0xCCB5, 0x4D42, 0xB4C1, 0x4E59, 0x542A, 0xC7E9, 0x5071,
    0x5311, 0x5009, 0xC91A, 0x5009, 0xCEC3, 0x363E, 0xCCD4, 0xD549, 0xCD75, 0x465A, 0xCF24, 0xD09A, 0x465E, 0xD030, 0xD56B, 0x480A, 0x5176, 0x511A, 0xCEE8, 0x55BF,
    0xCD68, 0x53B2, 0x5574, 0xD0AB, 0xD3C4, 0x4923, 0x54D1, 0xD464, 0x4C05, 0x4979, 0xD11C, 0x5287, 0x4C34, 0x4B85, 0x53AC, 0xC73F, 0xC78B, 0x4EB6, 0xC4AD, 0xBCC0,
    0x52B3, 0xD294, 0x46E1, 0x4E75, 0x4FC8, 0x48E3, 0x4C8C, 0xD540, 0xD410, 0xD1E4, 0x5377, 0xD1B3, 0x4988, 0x4F78, 0xD591, 0x4BE1, 0xCA7E, 0xD576, 0xD0C5, 0xCF99,
    0x5276, 0x4E75, 0x51A3, 0xD106, 0x4F9A, 0x4E0B, 0x4DBF, 0x4F4A, 0xD1D1, 0x4D67, 0xD29B, 0xCB16, 0x5027, 0xCC93, 0x4D96, 0xD453, 0xC89E, 0x4D07, 0xD12A, 0x5236,
    0x476C, 0xD156, 0xD52D, 0x5171, 0xD50C, 0x4C64, 0x4F51, 0x56D7, 0x4E46, 0xD53E, 0x521E, 0xC881, 0xBF28, 0x4850, 0xD1AD, 0xD42F, 0x54E4, 0xCB4F, 0x55F2, 0xD393,
    0x4E6C, 0xD52A, 0xCD1A, 0xACFA, 0x4B5A, 0xCC6F, 0xD4D0, 0x51D2, 0x455A, 0xD650, 0xD5D2, 0x500E, 0x5062, 0xCF2C, 0x46CB, 0xCF23, 0x4E27, 0x5280, 0xCC73, 0x4CD9,
    0xCE85, 0xCA97, 0x4EFE, 0x4D36, 0x3FC8, 0x506F, 0x5319, 0xD0E7, 0x480E, 0x5178, 0x4D13, 0x4CE8, 0x489B, 0xD208, 0x54B0, 0x500D, 0x5507, 0x576D, 0x54A1, 0xCF79,
    0x45F9, 0xC4A4, 0x4F9D, 0x40C6, 0x54D2, 0x4F54, 0xC09A, 0x5098, 0xC903, 0x548C, 0x550C, 0xD338, 0xBFB8, 0x55D7, 0xCE08, 0xD566, 0x4DB6, 0x5565, 0x53FA, 0x56AE,
    0xCDAF, 0xD03D, 0xCE58, 0xD36D, 0xD192, 0xC127, 0x56F1, 0xD257, 0xD337, 0x4D92, 0x4DEE, 0x540B, 0xD682, 0x52C9, 0x475C, 0xCCF0, 0x5153, 0x55F5, 0xD2A2, 0x49B8,
    0xD187, 0xD18A, 0x5304, 0xD03D, 0xCE00, 0x4D51, 0xCCE4, 0xD2EF, 0x4967, 0x556A, 0x4C8D, 0xCB43, 0x50DB, 0x4A9F, 0xC5BC, 0xC507, 0xD4AA, 0xD00F, 0x5271, 0x5252,
    0xCC42, 0xC90C, 0xD47E, 0x53CA, 0x55A5, 0x5189, 0xCF73, 0x55FC, 0xD3BF, 0xCA3B, 0xC95C, 0x4D7E, 0x48B0, 0x4C02, 0xC54B, 0x4D20, 0x4890, 0x5216, 0xD4A1, 0x522F,
    0xD2BC, 0xD0B2, 0xC841, 0xD4D0, 0xCDF8, 0xB56D, 0xCD3E, 0x4F8B, 0x53A5, 0xCE3C, 0xCEA6, 0x4ABC, 0x53E2, 0x54A4, 0xD5F1, 0x49C4, 0xD458, 0xCD3B, 0x4DB7, 0xC8EB,
    0xD49E, 0xB06B, 0x504E, 0xD131, 0xBEE4, 0x56E9, 0xD551, 0x5404, 0xCCF9, 0x51E0, 0xC57D, 0xD0C6, 0xCC30, 0xD052, 0x4C15, 0x51C8, 0x4C5D, 0x536C, 0x4972, 0x4D8B,
    0x54FC, 0xD3BB, 0x4AB3, 0xD108, 0xD14F, 0xCCE7, 0x5024, 0x5543, 0x4E1B, 0xD07B, 0x5473, 0xD31E, 0xD55F, 0x54F8, 0x5376, 0xD503, 0xCB02, 0x533B, 0xC9CE, 0x5015,
    0xCB43, 0x4CE4, 0x42A3, 0x4D07, 0x5065, 0x5530, 0xCF76, 0x50CA, 0x4593, 0xC856, 0x5454, 0x4110, 0xC76D, 0xCA7F, 0xCA74, 0xD5F2, 0x54B7, 0x501C, 0x54AB, 0x4033,
    0x5028, 0x5412, 0xCC8B, 0x4F48, 0xD2FF, 0xBD76, 0x4DAC, 0x555C, 0x4C01, 0xCD9C, 0xD1FD, 0x51EF, 0x4502, 0x4E89, 0xD066, 0x5500, 0xD743, 0xCFCC, 0xD206, 0x4F6D,
    0xD135, 0x528A, 0x48CF, 0xD467, 0xD59A, 0x411F, 0xD2CC, 0xC9E4, 0xD777, 0x4B66, 0x5409, 0x44F0, 0xD503, 0xCCD9, 0xBB1A, 0x5256, 0x5380, 0x535A, 0xD44D, 0x4D34,
    0xCC8D, 0xD64B, 0xCFA0, 0xCD38, 0xCE30, 0x529A, 0xCF40, 0xC24D, 0x555A, 0x5462, 0x536F, 0x4D8B, 0xD443, 0x5188, 0x48B6, 0x52CD, 0xD58A, 0xD581, 0x4C49, 0xD07E,
    0xC296, 0xCF35, 0x5799, 0x5446, 0xD2D1, 0xD72B, 0xD480, 0x5366, 0x4A5D, 0x50CB, 0x5187, 0xCAC9, 0x4D21, 0xD5C3, 0x4AAF, 0xC172, 0x44CF, 0x4BCE, 0xD47C, 0x462A,
    0xCF70, 0x544F, 0xCEDD, 0x5022, 0x4729, 0x5299, 0x47FC, 0xCE4B, 0x5392, 0xD0B0, 0xD1BA, 0xC84E, 0x51A2, 0x46C3, 0x42F4, 0xCB9A, 0xCEBE, 0xD6D4, 0x4DAC, 0x5420,
    0xD4CD, 0xB98B, 0xD4C4, 0xD75B, 0x5057, 0x515C, 0x57D6, 0x540F, 0xD53A, 0x48CA, 0xC574, 0x4D2D, 0x530A, 0x5339, 0xD027, 0xCA41, 0x5588, 0xD43C, 0x45EC, 0xCC30,
    0xD331, 0xD252, 0x52E5, 0x5083, 0xCDAC, 0x5432, 0x44C8, 0xC1AD, 0x5539, 0x55DE, 0xCFE6, 0x4B8F, 0x43A0, 0x50DE, 0xCE8B, 0x4934, 0x5157, 0xCED7, 0x45B3, 0xC22A,
    0x50D1, 0x5477, 0xC541, 0x52C4, 0xC680, 0x484C, 0x500E, 0x56B9, 0xD2F2, 0x529C, 0x4851, 0xD478, 0xC866, 0x525E, 0xC52B, 0xD2A5, 0xCCF0, 0xD33C, 0x4F2D, 0x4E60,
    0x5157, 0x42CC, 0x4994, 0xD27A, 0x508B, 0xC841, 0xD127, 0x5349, 0x47F6, 0x52FB, 0xC65F, 0x5023, 0xD204, 0x4DCD, 0x4D05, 0x54FD, 0xCD98, 0x549A, 0xD82A, 0x4E1A,
    0x5559, 0x3D4E, 0x54D4, 0x50D4, 0x46DE, 0xC46F, 0x52E7, 0xCE7A, 0xCAF3, 0x5355, 0x50BD, 0xD146, 0xD226, 0x5199, 0x52B6, 0xBE55, 0xC1B3, 0xC9D6, 0x4C9B, 0x4CE2,
    0x4CC2, 0x4A00, 0xD58A, 0xCCCF, 0x51E1, 0xD484, 0xC725, 0x5121, 0x5113, 0xC0D1, 0xCF5E, 0xCEB5, 0x53E1, 0x5155, 0x51AF, 0xCEA3, 0xC653, 0x4DD2, 0x4EF7, 0xBBCB,
    0xD4C8, 0x5441, 0x480A, 0x51B7, 0x4CA1, 0x51D0, 0xC95E, 0x4A6E, 0xBED0, 0x482D, 0xD1D8, 0x414C, 0xB9F0, 0xCAAE, 0x5259, 0x5427, 0xD509, 0xD47F, 0xD21F, 0xD20A,
    0xCE61, 0x542A, 0x3C30, 0xD1D7, 0xD4A0, 0xD286, 0xC3C3, 0xD471, 0xD41C, 0x54FD, 0x532A, 0x5092, 0x518A, 0xD0E3, 0xD2AC, 0x50B1, 0xD02A, 0x4EFD, 0x48EB, 0xD2A9,
    0xCA47, 0x5851, 0xD26F, 0xB13A, 0x52F6, 0x53B9, 0xCE4C, 0x4921, 0xD2D8, 0x4E37, 0x4F4C, 0xD459, 0x52DF, 0x519C, 0x4CD5, 0x4D11, 0x3FCB, 0x49B4, 0x52E4, 0x493F,
    0xCD38, 0x4040, 0xD684, 0x4E98, 0xC0BF, 0x4F30, 0x54A2, 0x475F, 0x4408, 0xD40E, 0xD475, 0x49A3, 0xD373, 0xD438, 0xD51E, 0x5608, 0xCD0D, 0xD6F0, 0xCF56, 0xCF8D,
    0xC12F, 0xD752, 0xD7E0, 0xD00E, 0x4E05, 0x5379, 0x527C, 0x5405, 0xD1A4, 0x535E, 0xCC52, 0x51C2, 0x49E1, 0xD528, 0x4CA8, 0x561F, 0x4553, 0xD4F7, 0x46B0, 0x481B,
    0x55AC, 0x533F, 0xD1EB, 0x4C45, 0x51C7, 0x5432, 0xD336, 0xCD51, 0x54E9, 0xD325, 0xC4E4, 0x5252, 0x52C7, 0x50AB, 0x53B4, 0xD55E, 0xD93D, 0xD0BE, 0xD4E0, 0x547B,
    0xD21E, 0x49CE, 0x5016, 0xD4D1, 0x529D, 0x516A, 0xC9AF, 0x527C, 0xD402, 0x4FC3, 0x4E97, 0xC2D5, 0xD6F4, 0xD28F, 0x4F4E, 0xB137, 0x41D8, 0xD0A8, 0xD04C, 0xC81D,
    0xD477, 0xD4C1, 0x42C0, 0x504C, 0x51ED, 0x4D9C, 0x44C4, 0xD356, 0xCFEA, 0x4ACF, 0x4C37, 0xCDC8, 0xADF3, 0x4B87, 0x5487, 0xD1B3, 0xCBB3, 0x4D18, 0x40EB, 0x4EE3,
    0xCED9, 0x5858, 0x4D07, 0xD591, 0x5349, 0x4C41, 0xD194, 0x4FE4, 0xD7FC, 0xD26A, 0x5681, 0xD641, 0x588D, 0xC9CB, 0x5297, 0xD231, 0xD0A6, 0x5229, 0x5124, 0xD07A,
    0xD119, 0xD573, 0xC537, 0x502F, 0x36FC, 0x51D4, 0xD4C2, 0xD18B, 0xC672, 0xD04D, 0xCF76, 0x50F4, 0x50F2, 0x5148, 0x579E, 0x54D7, 0xD31C, 0xD319, 0x4966, 0xCCA6,
    0xD1E3, 0xD4B9, 0x520D, 0x5235, 0x40BF, 0xCF48, 0x4AB3, 0xCF9F, 0x5116, 0x51F8, 0xD452, 0xD384, 0xD123, 0xD2FF, 0xCC12, 0xD366, 0x4DAA, 0xCBC3, 0xC620, 0x506E,
    0x57A4, 0xD4CF, 0xD09E, 0x5097, 0x4FBC, 0x5532, 0x4153, 0xC73D, 0x5240, 0x50AE, 0x5497, 0xD1B9, 0xD297, 0x3F78, 0xD8CC, 0xD836, 0xD4D9, 0x54CF, 0x4C6E, 0x4F5F,
    0x40D6, 0xCE3C, 0xD2C6, 0x51B6, 0x51D1, 0x4AA9, 0xC5CF, 0x56AF, 0xCF11, 0x4D82, 0xD71A, 0x53B0, 0x554F, 0x559D, 0xD113, 0xD441, 0xCEF2, 0xCCBE, 0xD492, 0x4F0E,
    0xCF8A, 0xCD0A, 0xCDDD, 0xD0A4, 0xD580, 0xD0D4, 0x530A, 0xD30E, 0x5208, 0xC493, 0x3FE4, 0xD659, 0x50A3, 0x4DB8, 0x4D5C, 0xD02E, 0x4F29, 0xCBDC, 0xD1AB, 0x55B1,
    0xD497, 0xD48F, 0xD67F, 0xD627, 0x535A, 0xD6C2, 0xD326, 0x52D9, 0xD439, 0x53D5, 0xD58C, 0x5112, 0x45A2, 0xD2FB, 0xD58C, 0x4F47, 0x5445, 0xD492, 0xC825, 0x524F,
    0x531D, 0xCA15, 0xCE4F, 0xD1CA, 0x5214, 0xCEAC, 0x4C87, 0xD07D, 0xD5DD, 0xD800, 0x5760, 0x500C, 0xD045, 0x5047, 0xCE8A, 0xD284, 0xCD2D, 0xD0DA, 0x56E2, 0x55C1,
    0xD4EE, 0x418D, 0xCD58, 0xCF97, 0x4E91, 0x555A, 0xD37C, 0xD344, 0x543D, 0x54C6, 0x5018, 0x528A, 0x5609, 0xCE07, 0xCC92, 0xC98C, 0x5220, 0x440D, 0xC8D9, 0x4E2B,
    0x462A, 0x5174, 0x517A, 0xCFA6, 0x4D15, 0x554F, 0xD049, 0x4017, 0xC0EB, 0x4CE0, 0x4C3E, 0xD747, 0xB2CD, 0xD10D, 0xCCD9, 0x4897, 0xC589, 0x4FC0, 0xC48C, 0x4BEC,
    0x574F, 0x550B, 0xD472, 0x4D9B, 0x47BA, 0xCB32, 0x5264, 0x4DFA, 0x4E2D, 0xC941, 0xCCFB, 0xD104, 0xCE74, 0x522C, 0xD439, 0x5435, 0xD16B, 0x4882, 0xCC51, 0xC977,
    0xD34E, 0xD474, 0xCE65, 0x561D, 0x4C5A, 0x5089, 0x53AE, 0x4B40, 0x52AD, 0x52A6, 0x55B1, 0xD317, 0xCCF0, 0xD0E7, 0xD68A, 0xD0FF, 0x50D6, 0xD519, 0xD65F, 0x5185,
    0xD119, 0x4F18, 0xD1E6, 0xD079, 0xD099, 0x51DC, 0x5327, 0x539E, 0xB900, 0x4B84, 0xD0E3, 0xD15E, 0x518F, 0xD249, 0xD100, 0x483F, 0x51A0, 0x4C89, 0xD013, 0x5148,
    0xC55F, 0xD2EC, 0xD448, 0x5353, 0xC665, 0xCE7A, 0x4B9A, 0xD453, 0xD496, 0xD167, 0xD030, 0x5408, 0xD27D, 0x4F55, 0x468F, 0x4C4B, 0x4E30, 0xC63D, 0xD70D, 0xC972,
    0xD2BD, 0x4E75, 0x44BF, 0xBA40, 0xD082, 0x5069, 0xCA83, 0x4E9C, 0xD240, 0x547D, 0xD1C1, 0xD220, 0xD80E, 0x4F50, 0xD6F1, 0xCE07, 0xD410, 0x5298, 0xC56A, 0x508E,
    0x4D6F, 0xBDD2, 0x4149, 0xD077, 0xD3B9, 0xCE5B, 0x5027, 0x48C5, 0xD17D, 0x55D5, 0xBFCE, 0xD4F5, 0x44D8, 0x52A6, 0xD30D, 0xC955, 0xD4B3, 0xCF8A, 0xC597, 0xCA71,
    0x57C5, 0x5188, 0xD611, 0x49AA, 0xD41C, 0xCD63, 0x494A, 0x5362, 0x4401, 0xD074, 0x49F1, 0xD01E, 0x5218, 0xC3F2, 0xD01B, 0xD19F, 0x5164, 0x50DD, 0x4CBA, 0x47CD,
    0x4DD6, 0xD5B9, 0xCF12, 0xCCFE, 0xD6CE, 0xD73D, 0xC888, 0x5038, 0xD1EC, 0xD126, 0xD6B0, 0xD5B2, 0xCEFA, 0xD487, 0xD3BD, 0x5036, 0x5134, 0xCA3F, 0x524C, 0x5222,
    0x47A0, 0x5505, 0xD1FE, 0xD433, 0x4C21, 0xD568, 0x5110, 0x5221, 0x4F6C, 0x45A9, 0x4FE8, 0x4E7B, 0x548F, 0x4FB6, 0xCA55, 0xD464, 0x568E, 0xCF9A, 0xD430, 0x5114,
    0x5532, 0xD508, 0x5055, 0x52C1, 0x54F1, 0xC867, 0xC71D, 0x5836, 0xD216, 0x4B5D, 0xD363, 0xD2E4, 0xCEA8, 0xCD5E, 0x5426, 0xD0E1, 0xCC8E, 0x4855, 0xD4BF, 0xCE02,
    0xC1DE, 0xCEBA, 0xD618, 0x4DDB, 0xCE8C, 0x3590, 0x48BF, 0xC136, 0x5075, 0x4E25, 0xD3CE, 0x50A1, 0xD243, 0xD674, 0xD183, 0x4842, 0x5287, 0xCEFF, 0x5319, 0x5148,
    0x516A, 0xCD43, 0x4F00, 0x563C, 0xCB9F, 0xCB28, 0x33FC, 0xD525, 0x50AF, 0x4F0A, 0xCFDA, 0x55D0, 0xD81F, 0x519A, 0x571E, 0x4BCC, 0xCD27, 0x5800, 0x5773, 0xCF8E,
    0x551B, 0x5387, 0x4B9B, 0x5616, 0x4FE9, 0x383D, 0x4A14, 0xC76A, 0xD4FD, 0x4916, 0xC7D9, 0x5521, 0xCE38, 0xCEA6, 0x5154, 0xCEA0, 0xCEDD, 0x4712, 0x55B5, 0xCB5C,
    0x4D88, 0x48AC, 0x5674, 0xC5DC, 0x507F, 0xCF41, 0xC9A8, 0xD61A, 0x40FE, 0x5030, 0xCCE9, 0xD21B, 0xCE76, 0x4BFB, 0x4F99, 0x51E8, 0x500D, 0xC963, 0xC833, 0xD6F8,
    0xD40D, 0x5300, 0x551A, 0xC793, 0x50ED, 0x4FD9, 0xC6A7, 0x5490, 0xC2A9, 0xC9E8, 0xCC0E, 0x536E, 0x5411, 0xD238, 0x4EB9, 0xCB7C, 0xD193, 0x4DF6, 0xCFC9, 0x4BA7,
    0xD5E0, 0xBA59, 0x4173, 0x4F2E, 0xD406, 0x5576, 0xCAF7, 0x4CF1, 0xD446, 0x529E, 0x499F, 0xD297, 0xD0E0, 0xD004, 0x4ED4, 0xCFDB, 0xD5DC, 0xC163, 0xD152, 0xCD94,
    0xBB39, 0xD04A, 0x5133, 0x4722, 0x5345, 0x56C2, 0xD51B, 0xCB7E, 0x5181, 0xCD3D, 0xD5AB, 0x487B, 0xC48A, 0x547D, 0xD5F1, 0xC54A, 0x5165, 0xD7BA, 0xD3CB, 0xCE4D,
    0x543E, 0x452B, 0xD3F4, 0xD1E8, 0xCC92, 0xD050, 0x572A, 0x519E, 0x513F, 0xD072, 0xCB86, 0x51AD, 0xC2D4, 0xD03C, 0x531C, 0x51EC, 0xD650, 0xC90F, 0xCC9D, 0xD4D2,
    0x5172, 0xD619, 0xD37D, 0x52A8, 0xCA84, 0xD07C, 0xD12C, 0xD21F, 0xC9BD, 0x57D2, 0x4E0B, 0x541A, 0xD342, 0x5098, 0xC95D, 0xC84B, 0xD22F, 0x52AA, 0xCFB5, 0x4A41,
    0x526C, 0xCCEC, 0xD2D6, 0xC685, 0xCEC3, 0xD3A7, 0xD5FC, 0xD35A, 0xD050, 0x49D1, 0xD145, 0xCE47, 0xD38F, 0xD114, 0x45DA, 0x5594, 0xCD5A, 0x4BFF, 0x50EC, 0x52BE,
    0x3C1B, 0xCEC1, 0xD3C8, 0xD002, 0xD12B, 0xCF22, 0x538D, 0x55BF, 0xC97B, 0x53F3, 0xBA83, 0x4582, 0xC890, 0x54B0, 0x4237, 0x3986, 0x4529, 0x5569, 0xD225, 0x4D0A,
    0x4F9C, 0x4C04, 0x3CE7, 0xCEE5, 0x5764, 0xCFC7, 0x4C24, 0xCDD9, 0xD09B, 0xD040, 0x520D, 0xC915, 0xD48B, 0xCCB1, 0x4CA4, 0xB9FD, 0x52C4, 0x5148, 0x4778, 0x3832,
    0xD62B, 0xD421, 0x5130, 0x5118, 0x537D, 0x43AF, 0x5330, 0xC5B9, 0xCF57, 0x4EB9, 0xD2A8, 0x52A7, 0xD1BA, 0xCBFA, 0x4405, 0x4BCB, 0x48CE, 0xC856, 0x4F8A, 0x5680,
    0x44BE, 0x549C, 0xD038, 0x55BF, 0xBC03, 0x4E67, 0xD523, 0x5B58, 0xD3CC, 0xCD00, 0xD8D1, 0xCCB5, 0xD173, 0x48EE, 0xD11E, 0x5355, 0x5080, 0xCC36, 0xCBD2, 0xD44C,
    0x45E0, 0xD174, 0xD603, 0xCA05, 0xCA7C, 0x4EDA, 0x4D98, 0x549A, 0xCEFD, 0xD23A, 0x5992, 0xD3E5, 0x5030, 0xD80A, 0x4EC2, 0xC9BE, 0x5082, 0xC89A, 0xD17E, 0xCC11,
    0x4F0D, 0xC28E, 0x51F1, 0xD4C1, 0x5429, 0xCCEA, 0xD015, 0x4DCC, 0x575F, 0x4ABA, 0xD2AE, 0x4D0B, 0x4BDA, 0x52B3, 0x4F9B, 0x5987, 0x5462, 0xD925, 0x526B, 0x52ED,
    0xD660, 0xCEF3, 0xD5BF, 0x54DE, 0xD46A, 0xD026, 0xD205, 0xD30E, 0x4671, 0x56A1, 0x50D1, 0xC914, 0x4C6E, 0xD336, 0xC698, 0xC6D7, 0xD758, 0xD39B, 0x3F39, 0xCB2C,
    0x579C, 0xD57F, 0x45DE, 0x512E, 0x4AF9, 0xCFEF, 0x4F5C, 0xCA1E, 0xD1EF, 0xD5C7, 0xD1AF, 0x5484, 0x4EBB, 0x4D00, 0xD43D, 0x511A, 0x55D6, 0x4D95, 0xC989, 0xD10B,
    0x4428, 0x4E13, 0x5440, 0x530F, 0x4DEF, 0xD49A, 0xD345, 0x54BE, 0x540E, 0x4D72, 0x528A, 0x54E1, 0x5240, 0x4E0E, 0xD422, 0xD03A, 0xCAE4, 0xD44D, 0xCC27, 0x4D21,
    0xCD09, 0x5127, 0x51E0, 0x48D0, 0xD636, 0x5056, 0x4DFA, 0x55AD, 0xCBCB, 0xC9B0, 0xCC21, 0x50CB, 0xC386, 0xD1F1, 0xD15C, 0x4D5B, 0xCFB5, 0x4F33, 0x5047, 0xD1E4,
    0xC5BA, 0x4F2F, 0xC8F1, 0x52B3, 0xC866, 0x43C3, 0xC3AA, 0xD4B2, 0x4C74, 0x4100, 0x517E, 0xD3F1, 0x550B, 0xD376, 0x4CAF, 0x4924, 0x50BD, 0xD4BF, 0xD05B, 0xC5D9,
    0x4A93, 0xD371, 0x5423, 0x4D63, 0xD532, 0xD498, 0x5569, 0xCFAD, 0xD186, 0xCA33, 0x5020, 0xCFE5, 0xD51A, 0xD553, 0xD3E5, 0xD0BC, 0xCCF5, 0x5296, 0x5884, 0x4C32,
    0xCFEF, 0xC8A7, 0x5744, 0x5424, 0xCA84, 0x5373, 0x40EC, 0x5494, 0xCA27, 0xC462, 0x4D3E, 0xCE0A, 0x4C18, 0xD4AC, 0x56DC, 0xD154, 0xCFA9, 0x5538, 0x46F0, 0xD4BB,
    0xD1B0, 0xD082, 0x4278, 0x5308, 0x55D7, 0xC9D5, 0x49BA, 0xD53C, 0x52DC, 0x461E, 0x5441, 0x3CFE, 0xD0F2, 0xD369, 0x4F87, 0x51A0, 0xCA1C, 0xC8EC, 0x4BD3, 0xC847,
    0xD449, 0x5484, 0xD549, 0x52A6, 0xD316, 0xB327, 0xD70E, 0x4D00, 0xC9A2, 0xD379, 0x470F, 0x4D3E, 0x513E, 0x51FB, 0x4EE6, 0xD1BB, 0xA475, 0xD098, 0xD785, 0x557C,
    0xC9C5, 0x4DF3, 0x528A, 0xCA96, 0xC6B6, 0xD380, 0x56CD, 0xCCE2, 0xD0A2, 0x5084, 0xD628, 0xD534, 0xC6B8, 0xCA58, 0x4AD8, 0x4EE2, 0xD320, 0x554F, 0x5038, 0xCF4E,
    0xD3C1, 0xC3FA, 0x4F25, 0xD388, 0x529B, 0xCE4B, 0xC9C8, 0x50D5, 0xCF51, 0x5257, 0xD027, 0x4D39, 0x52A7, 0x5347, 0x53C3, 0x51EE, 0xD112, 0x4C92, 0xCB66, 0xD0E4,
    0xD5DA, 0x5970, 0xC705, 0x4933, 0xD8F8, 0x4F3A, 0xD0DB, 0xCB70, 0xD4BF, 0x51DD, 0x53FC, 0xC6B4, 0xC6F1, 0xCD3F, 0xD1FB, 0x5514, 0xCEE0, 0x4FDA, 0xCE4E, 0xD5F6,
    0xC943, 0x587A, 0xD17B, 0xD4A4, 0x54D3, 0x4DBB, 0x53E2, 0x550C, 0xD176, 0x52C5, 0x5671, 0xD1DC, 0x4760, 0x5079, 0x53C5, 0xD2E7, 0xD190, 0x540D, 0x5571, 0x54E3,
    0xCACD, 0x5689, 0xD6F4, 0x5519, 0x5120, 0x4A94, 0x4CF2, 0xD1AD, 0x5307, 0x4AF0, 0x5236, 0x54EC, 0xCE55, 0xCE55, 0x4C35, 0xD2BB, 0xD1BB, 0xCAE7, 0x50B0, 0xC8A8,
    0x4DBB, 0x453F, 0x41F2, 0x53FA, 0xD518, 0x49F0, 0x5054, 0xD164, 0x467A, 0x555A, 0xD39F, 0x53B8, 0xBCE6, 0x517A, 0x43B9, 0xCD93, 0xC8FB, 0x5134, 0xD63B, 0x3A0B,
    0x52C7, 0x52FF, 0x54F9, 0xCDCA, 0x542B, 0x545B, 0x2B73, 0x5426, 0xCD0C, 0x4A14, 0x50DB, 0xCDD6, 0x4954, 0x47CA, 0xD40A, 0x51D8, 0x5126, 0x56F3, 0xD271, 0x5280,
    0xD499, 0x5290, 0x4C34, 0x4F29, 0xD636, 0xC803, 0x5445, 0xD436, 0xD2B8, 0xD321, 0xD464, 0x49FD, 0x4C7E, 0x3B72, 0xCD65, 0xCF37, 0x558E, 0xD352, 0xD25D, 0x5500,
    0xCC90, 0xD6F4, 0x453B, 0xC6CE, 0x4151, 0x4B8C, 0xD30B, 0xD48A, 0xD323, 0xD407, 0xD653, 0xC868, 0x53A5, 0x4097, 0x5184, 0xD3C2, 0x545E, 0x486B, 0xCFD4, 0xD0A1,
    0xC9F5, 0x4A62, 0x554E, 0xD36E, 0x55E0, 0x54BC, 0xCF32, 0xD534, 0x3F54, 0xD5AD, 0xD3BD, 0xCF21, 0x537D, 0x4D79, 0x5423, 0xC92F, 0xD3D7, 0x5706, 0x495A, 0x5026,
    0xD2E6, 0xC903, 0xCA33, 0x4CD5, 0xCD72, 0x4E19, 0x5200, 0x4AEF, 0x4CAE, 0xD0D3, 0x5449, 0x5454, 0x471B, 0x5716, 0x5451, 0xD5E0, 0x5042, 0x535B, 0xC7EB, 0x5010,
    0xD535, 0xCCBF, 0x530F, 0x3D77, 0xC9CF, 0x4ABA, 0xD25D, 0xD0DA, 0x5385, 0x53A0, 0x5606, 0xD3A7, 0x4E53, 0xD00B, 0xBF18, 0x4F78, 0xCF81, 0x542D, 0x5368, 0x5329,
    0xC446, 0x55D3, 0x5386, 0x53E6, 0x53FC, 0x52A9, 0xD0D6, 0x5479, 0xD5EC, 0x3D81, 0x4C58, 0xCDD9, 0xCB74, 0xD144, 0xD14E, 0xCFC8, 0xD568, 0xD248, 0xD510, 0xD264,
    0xCCEF, 0x5410, 0xC0DF, 0x52A3, 0x5545, 0x4ED0, 0xD829, 0x4A07, 0xD1EB, 0x4EFB, 0xD29F, 0xCF99, 0xD1D0, 0x4C7A, 0xD188, 0x57A1, 0x438D, 0x5717, 0x442F, 0xCCBE,
    0xB902, 0xD6F2, 0xCA3E, 0x5075, 0x5216, 0xD47C, 0xD370, 0xD187, 0x54DB, 0xC7A8, 0x5501, 0xD06F, 0x5044, 0x569A, 0x530B, 0x4444, 0x4F72, 0x5047, 0x51DF, 0xCA20,
    0xC870, 0x554D, 0x3D8B, 0xD483, 0x4D96, 0xCFD0, 0x4A25, 0x55EC, 0xC9C7, 0x3BAF, 0xCDD2, 0x52B1, 0xCE06, 0x4D0D, 0x51F8, 0xC8C0, 0x4CDF, 0x4E20, 0x5700, 0x5226,
    0xCBDF, 0x4A17, 0x45A6, 0xD413, 0x543D, 0x4C19, 0xD361, 0x51F3, 0xBCC1, 0xC990, 0x50F7, 0x540C, 0x4DFE, 0xCA5F, 0x50CA, 0xCD86, 0x52FA, 0x50A5, 0x53CD, 0xCFAA,
    0x5024, 0xC56F, 0x4812, 0x509F, 0xD0E0, 0x54FD, 0xBA6F, 0x546C, 0xB852, 0x51AD, 0xCCE1, 0x51CC, 0xBD60, 0x550C, 0xCA55, 0x4C6E, 0xD04D, 0x5425, 0x5203, 0x5334,
    0x4AFF, 0xCF15, 0xC8A4, 0xD3B4, 0xD9A8, 0xD272, 0xD3CD, 0x4F1E, 0x54B4, 0xC8BC, 0xD3DF, 0x5814, 0xBB8E, 0x547D, 0x5552, 0xCF1E, 0xCEB6, 0x4662, 0xC424, 0x5521,
    0x5190, 0x49AB, 0xCFB4, 0xD424, 0x505E, 0x5077, 0x5462, 0x412F, 0x43E4, 0x5261, 0x5567, 0xCB68, 0x4EFB, 0xD8E2, 0x5126, 0x4B04, 0x566D, 0x4ED2, 0x4E3E, 0xD7CE,
    0xD42C, 0xBE84, 0x53A6, 0xD5D9, 0x45A5, 0x56B3, 0xD442, 0xCACD, 0xCA81, 0x505F, 0xCE8A, 0x4A80, 0x5191, 0x5259, 0xCE5E, 0x48FB, 0x4B4E, 0x52A7, 0xC017, 0x4E32,
    0xC509, 0xD028, 0x4AC3, 0xCF1B, 0x508A, 0xD1CF, 0x541E, 0x5410, 0xD0F7, 0x549C, 0xD23B, 0x3888, 0x50AA, 0x5528, 0x538F, 0xCFAB, 0xD116, 0x5048, 0x5569, 0xCC35,
    0x5356, 0xD0A5, 0x535C, 0x478B, 0x53EC, 0xCC5A, 0x57E5, 0xD325, 0xCD9C, 0x5746, 0x40B2, 0x5227, 0x540B, 0x44A4, 0xD4A7, 0xCAF1, 0x5518, 0x411D, 0xD60B, 0x3C54,
    0xD19C, 0xD48F, 0x54BA, 0x50A0, 0xD59F, 0xCB06, 0xD0E6, 0x4BF8, 0xD251, 0x56E8, 0x504F, 0xCE63, 0xD5F9, 0xD51C, 0xCF88, 0xD1E7, 0xCDA3, 0x4F87, 0x4C11, 0x5778,
    0xD27F, 0xCFB4, 0x4F41, 0xD4BB, 0xD7C6, 0x5043, 0x5242, 0x4C44, 0x537A, 0x5673, 0xCED9, 0xD8B7, 0x502C, 0xCCF0, 0xD22C, 0xBCB9, 0xD143, 0xCF2C, 0x4E40, 0x4D35,
    0x55B5, 0x4EA5, 0x4EBF, 0x5895, 0xD178, 0xCEC6, 0x4FD2, 0x4B77, 0xB1C0, 0x52FA, 0x5770, 0xD3B4, 0xC971, 0x4EEB, 0xD56F, 0x4C08, 0xCDCE, 0x4EC8, 0xCF93, 0x5228,
    0x544F, 0xD05E, 0xD804, 0xD426, 0xCE10, 0xD094, 0xD64A, 0x52E3, 0xD44E, 0xCB1B, 0x5805, 0xC330, 0xD2A0, 0xD47D, 0x4F02, 0xD7B1, 0xD4C0, 0x557A, 0x50C5, 0xD43E,
    0xD7DF, 0x5251, 0xD3D1, 0xD2CE, 0xD53D, 0xC5D6, 0x46A5, 0xD33A, 0xD553, 0xCFDD, 0x5491, 0xC93B, 0x4EB5, 0xD7CE, 0x58E7, 0x3C76, 0xCB38, 0xD0FB, 0xC01D, 0xC2FF,
    0x50E6, 0xD8BA, 0x53D5, 0x5099, 0x4CCC, 0x511D, 0x4071, 0xD6BA, 0xD2C4, 0x4AFA, 0x4B32, 0xC646, 0x535A, 0x569A, 0xCFC9, 0x52D1, 0xD188, 0xCC7F, 0x515F, 0xD408,
    0xD4A7, 0xD253, 0xD427, 0x49B1, 0x404B, 0x4B3A, 0x5179, 0xD0B0, 0x523B, 0xD5FF, 0xD100, 0x5480, 0xD034, 0xD570, 0xCCA9, 0x4647, 0xCC5C, 0x4D2E, 0xD3E3, 0xD350,
    0xD4A0, 0xD4C6, 0xD572, 0xCC9F, 0x5692, 0x4C8A, 0x5370, 0xD20E, 0x54D0, 0x4AA8, 0xCB7E, 0xCEFB, 0xC582, 0x5179, 0x4FDA, 0xD27D, 0x525D, 0x5285, 0xD15B, 0xD491,
    0xCC9E, 0xD4AF, 0xD409, 0xCD89, 0x506F, 0x3F6B, 0x52A8, 0xD0AE, 0xD469, 0x545B, 0x5506, 0x51A7, 0x51E3, 0xD50A, 0xC69A, 0x529F, 0x503D, 0x4928, 0xCC65, 0xCE52,
    0xD051, 0xD2CC, 0xD17B, 0xCE35, 0xD332, 0x4947, 0xCE2D, 0x5163, 0xD16A, 0x4D48, 0x54DE, 0x4F9E, 0xC035, 0x559E, 0x5448, 0xCE31, 0x53D8, 0x53EE, 0xD147, 0xD32F,
    0x48D0, 0xD5ED, 0x4261, 0xCDAE, 0x4208, 0x500B, 0x54A4, 0x4C95, 0x5407, 0x459F, 0xCDEE, 0x4FB6, 0xC7E1, 0x5257, 0xCC16, 0xD318, 0xD1B8, 0x550C, 0xC608, 0xD271,
    0x51FE, 0xC8D6, 0xCDC9, 0x50A0, 0xCC1C, 0x5170, 0x4EEE, 0x4E03, 0xCF90, 0x51E5, 0xCB07, 0x5663, 0xD586, 0x50EB, 0xD1BA, 0xD0FE, 0xD1AF, 0xD50D, 0x3560, 0x52E6,
    0x4C85, 0x506B, 0xD522, 0xCE5E, 0xC116, 0x4F08, 0xCB69, 0xCB90, 0x5327, 0xCA30, 0x4EAB, 0x5250, 0x5489, 0xCD51, 0x5440, 0xD411, 0x5097, 0x4B19, 0xCE49, 0x5412,
    0xD634, 0xD14D, 0x4E58, 0xC526, 0xCBFF, 0xCD4D, 0x54D7, 0x540C, 0xD292, 0xD1DB, 0x5270, 0x51E4, 0x50DC, 0x51DA, 0x562C, 0xD10E, 0xBAED, 0xD582, 0xC9F7, 0x4CDC,
    0xD1B3, 0x46BB, 0x4E3C, 0xD11B, 0xD29B, 0x4265, 0xD0EE, 0xD164, 0x4DD8, 0xD07E, 0xD1F9, 0x541F, 0xBB14, 0x514A, 0x5436, 0xD036, 0xC803, 0xD2DA, 0x522A, 0xCD95,
    0xD3FC, 0x4FB4, 0x4CFF, 0xCDA9, 0x5096, 0xC4F2, 0x4CC6, 0x4EB5, 0x4E81, 0xD404, 0xCDDB, 0xC8F2, 0xD492, 0x5863, 0xD51A, 0xBDB5, 0x5623, 0xD432, 0xD4E4, 0xD10D,
    0x55B8, 0x52BA, 0x4E11, 0xCB72, 0xCFCE, 0xD120, 0x5078, 0x5343, 0xD24C, 0xD478, 0xD1A9, 0x47A1, 0x4EA4, 0x5784, 0xCF1A, 0xCD59, 0xD15D, 0x4DD0, 0x4EED, 0xCD13,
    0x52FC, 0x4F15, 0xBEA5, 0x51CD, 0x4BAD, 0x4EDB, 0xD76C, 0xC89F, 0x5567, 0xD03A, 0x534A, 0xCCB5, 0xD0B0, 0x3EE6, 0x514D, 0xD257, 0x48F6, 0x4CC1, 0xCBC0, 0x507A,
    0x52E8, 0xD1AB, 0x51E3, 0x5126, 0x559A, 0xD413, 0x525E, 0x531B, 0x53F6, 0xCE1B, 0xD150, 0x512F, 0xC6A8, 0xCC7E, 0xCFFD, 0x4D5F, 0xCCE1, 0x4037, 0xD2D8, 0x577E,
    0xD2D3, 0x56FA, 0x3AB3, 0x55B3, 0x5235, 0xCC94, 0xCFE2, 0x55AD, 0xD2F3, 0x512A, 0xD55D, 0x4CBE, 0xCDC6, 0xC883, 0xD017, 0xCFA3, 0x48F7, 0xD423, 0x54D7, 0xCF9E,
    0x5126, 0xCC16, 0xD524, 0xCE58, 0x57B5, 0xCE46, 0xD0EC, 0x3E75, 0xD4BC, 0xC7B7, 0x4947, 0x51A0, 0x44AD, 0xD2C5, 0xD2E6, 0x4EAA, 0xD141, 0x5033, 0x57A8, 0x4D8B,
    0xC674, 0x4CC5, 0xD0F1, 0xD799, 0xC137, 0xC7D4, 0x5034, 0xD2CA, 0x4D16, 0xD07D, 0xCCC7, 0x4FE7, 0xD31D, 0x4AD5, 0x4B8A, 0xCE78, 0xCE29, 0x544E, 0x5031, 0xCB13,
    0x5015, 0x523E, 0x51D7, 0xD0F3, 0xD424, 0x4C1A, 0xCE31, 0xCCD2, 0x50B0, 0xCEE1, 0x50F6, 0xCE3B, 0x524A, 0x4273, 0xD42C, 0x5783, 0xD27C, 0xD164, 0x4D38, 0x54D7,
    0x552C, 0xD62E, 0xC479, 0x561A, 0x5527, 0x4823, 0x4A4E, 0xD06F, 0x4ED5, 0xCE31, 0x5049, 0xD33F, 0x565C, 0xD1CA, 0x4ED0, 0x556A, 0xD4A9, 0x5422, 0x5398, 0x5212,
    0xD09A, 0x4329, 0x5864, 0xCF34, 0x5256, 0x4F7C, 0xD148, 0x417B, 0x5368, 0x50B3, 0xD4B9, 0xD034, 0xD298, 0x5292, 0xD66A, 0x55E9, 0xD428, 0x49F8, 0xD560, 0x512D,
    0xCBEA, 0xD4B8, 0xD02C, 0xD507, 0x553B, 0x5027, 0xD0C6, 0x4DB5, 0xD1F9, 0xCC23, 0xD019, 0xD23E, 0xCFB3, 0xCB7A, 0x51F8, 0x4FE6, 0xD106, 0xC74A, 0x5119, 0x48F4,
    0xD402, 0xD1DC, 0xD401, 0xCF09, 0xD732, 0x48AA, 0x56C2, 0x4A49, 0xD0AB, 0x51D8, 0xCC22, 0x5420, 0xCD90, 0x54C4, 0x4D4F, 0xC50A, 0x5523, 0x4BDB, 0xCD50, 0x5658,
    0x54AF, 0x53D7, 0xD489, 0x522C, 0x52A6, 0x54EB, 0x54EE, 0x4C15, 0x5099, 0x5528, 0xD744, 0xD15E, 0xC8AF, 0xD49A, 0x3E8D, 0x4F3A, 0x50CF, 0xD39B, 0x47E0, 0x5433,
    0x521A, 0x53CF, 0xD44C, 0x548A, 0xBF10, 0xD128, 0x489B, 0x556F, 0x43BA, 0x5562, 0x4F5B, 0xC968, 0x50AF, 0xD1B7, 0xC7B0, 0x507E, 0xD405, 0xC4C0, 0x558A, 0x4F8C,
    0x560D, 0xD26E, 0x5458, 0x5770, 0x5137, 0x4CCB, 0xD357, 0xC7B0, 0x4DDC, 0xCDC1, 0xBDBA, 0x52FD, 0xD137, 0xCF83, 0xBD81, 0x537E, 0xD4F5, 0x54DC, 0xD2DC, 0x501B,
    0x55FA, 0x3FCE, 0xD327, 0x517D, 0xCD1F, 0xC97B, 0xD7A4, 0x5438, 0xD1E9, 0xD355, 0xCEAE, 0xCD29, 0x5465, 0xD241, 0xD697, 0xC525, 0xD04A, 0x4A9B, 0xD4A1, 0x3FC5,
    0xD0C7, 0xD16F, 0x4B9D, 0x4862, 0xD68A, 0xD52D, 0x528C, 0x49EC, 0xC994, 0x3CDD, 0xD5BA, 0xD06E, 0xD134, 0x4DCA, 0x58C5, 0xCF06, 0xCAA9, 0x4959, 0xCE43, 0xD3F4,
    0xCFE2, 0x54E9, 0x535B, 0xD044, 0x52E1, 0x5453, 0x54C1, 0xCB05, 0x5505, 0x5571, 0xCA75, 0x527A, 0x514F, 0x52DA, 0xC6DC, 0x50F5, 0xD6F6, 0xD1B8, 0xD76B, 0xD604,
    0x50EB, 0x5005, 0xD347, 0x5488, 0xC86C, 0xD030, 0x4E42, 0xD183, 0x52BC, 0x50F0, 0xC50F, 0x4878, 0x4DA0, 0xCF2E, 0x5652, 0x524C, 0x5285, 0xD39B, 0xBE0B, 0x4AED,
    0xD341, 0xD254, 0xCE32, 0xBB55, 0x509A, 0xCDBA, 0x4D9B, 0x5525, 0x49F3, 0xC860, 0x4D36, 0xCDD3, 0xCBDF, 0xD030, 0x57F1, 0xCC8C, 0xCC72, 0x559F, 0x4718, 0xD1BA,
    0xD10D, 0xC4A3, 0xD0BB, 0xD29B, 0xD0A4, 0x4DBE, 0x40F3, 0xD05B, 0x5091, 0xD26C, 0xD653, 0x5068, 0x557A, 0xD4DE, 0xD8DC, 0xD4F9, 0xC876, 0xCB7D, 0xD424, 0xD434,
    0x4731, 0x488F, 0x4DBC, 0x559B, 0x4CEC, 0xC95D, 0x48F1, 0x5045, 0x4DB4, 0xD2F4, 0xCF67, 0xC7FB, 0x516B, 0xD258, 0xD191, 0xCF63, 0xD4A7, 0xD22E, 0xD72A, 0x4C3D,
    0x49A3, 0xCC2B, 0x4F8D, 0xCFE8, 0xD1A8, 0xCC52, 0x5179, 0x53FF, 0xCC70, 0x54FD, 0x4BED, 0x521B, 0xCA8F, 0xC9B1, 0xD2F5, 0xD414, 0xCF13, 0xD4DB, 0x5120, 0x5569,
    0x5221, 0x54C6, 0xD0A0, 0x544A, 0xD135, 0x5485, 0xD304, 0x52D3, 0xD0A9, 0xCFE7, 0xD349, 0xCCE1, 0xD6DC, 0xD437, 0xC4D3, 0x4F29, 0x5210, 0xD155, 0xC894, 0x498F,
    0xCE2C, 0x4B2F, 0x5202, 0x5355, 0x478A, 0x4D32, 0x547C, 0xD113, 0x546B, 0x4BE2, 0xD553, 0xD247, 0xCAF8, 0xD560, 0xD0D4, 0xD504, 0x5223, 0x5051, 0xD5F9, 0x4B2C,
    0x4B6A, 0xD860, 0xD091, 0xD068, 0xCC0E, 0xCEAE, 0x5890, 0x500E, 0xCE3D, 0x50DE, 0x56DF, 0x4ED5, 0xD80E, 0x55A6, 0x560C, 0x4D72, 0xD5F2, 0x5508, 0xC962, 0x5090,
    0xC873, 0xC746, 0xD37E, 0x52A8, 0xD0A0, 0x4A78, 0xD108, 0x5162, 0x5125, 0xD0A2, 0x4E19, 0xCE25, 0x4EF2, 0xCE80, 0xD32B, 0x5013, 0x4CD5, 0x4F91, 0xD1EF, 0x54EA,
    0xD150, 0xD6D3, 0xCC31, 0x509E, 0xD1CF, 0xD047, 0xCFF2, 0xD3DC, 0xD0EE, 0x4DC5, 0x5363, 0x52C3, 0xD04E, 0xCB1C, 0xD112, 0xD4A1, 0xD0EA, 0x5526, 0x45CF, 0x4839,
    0x5365, 0xC9E4, 0x4DB0, 0xD4B5, 0xCB8D, 0xC3FD, 0x51E4, 0x4E63, 0xCFE1, 0xCFAA, 0x4C29, 0xC5D5, 0xD303, 0x46C3, 0x5297, 0x54B5, 0x4D9C, 0xC8D4, 0x51DE, 0xD43D,
    0xD416, 0xD049, 0x5187, 0xD48D, 0xCE2B, 0xC277, 0x4C6B, 0x4B6C, 0x55B4, 0x496A, 0x4404, 0x4F68, 0xD58B, 0x49C1, 0x55F1, 0xD151, 0x4C32, 0xCF2D, 0xCF29, 0xCB11,
    0xD09A, 0x4F08, 0x51C6, 0xCB60, 0x39AE, 0xC579, 0x4884, 0x5564, 0xB660, 0x51FD, 0x43D4, 0xCC37, 0x5226, 0xB7DE, 0x498C, 0x54A8, 0xD0F5, 0xD3E0, 0x528D, 0x4FB9,
    0x54B6, 0xCD7B, 0x551D, 0xD11B, 0xCC0C, 0x4A14, 0xCEC9, 0xD188, 0x525C, 0xD44C, 0xD0DB, 0xD424, 0xD4C4, 0x52E9, 0x4166, 0xD1E5, 0x44ED, 0x4947, 0x5120, 0x50C2,
    0x4D3F, 0xCB4B, 0xD3BE, 0xC04E, 0x496D, 0x4ED0, 0xCFDB, 0xCFD0, 0xCF94, 0x4400, 0xD420, 0xCE10, 0xCD9C, 0xBBE3, 0x5003, 0xCBAC, 0xB021, 0xD37D, 0xD0B3, 0xD366,
    0xD2C7, 0xD113, 0x4C66, 0x4C58, 0xC909, 0xD3A3, 0x51C6, 0x4375, 0xD06A, 0xD1C4, 0x430F, 0x4AE6, 0xD743, 0x52AD, 0x5068, 0x5413, 0x4360, 0xCD86, 0xD340, 0x4F3A,
    0xBFFF, 0x5476, 0xC55E, 0x4FA2, 0xD4BC, 0x3EB2, 0xCB30, 0x4E8B, 0xD1FD, 0x5645, 0x54AB, 0xCFC8, 0x4905, 0xD466, 0xD00A, 0xD058, 0xBF5F, 0xC902, 0xCD05, 0x5066,
    0x50B8, 0x4E5D, 0xCA07, 0x46F3, 0x5171, 0x45F3, 0xD213, 0x4E24, 0x52B9, 0xD33F, 0x4CEE, 0x5340, 0x54DE, 0xD320, 0x4FE4, 0x55AD, 0xCADA, 0x4CEF, 0x4863, 0x4CF1,
    0xD27A, 0xCF7B, 0x515E, 0xCB50, 0x4C39, 0x3CF7, 0xD697, 0xC207, 0xD236, 0x55A4, 0xD23C, 0x546F, 0xD360, 0x51F2, 0xD601, 0x5043, 0x50A2, 0xCCEB, 0x4762, 0x4B27,
    0xD405, 0xD00F, 0x4EA0, 0xD5EE, 0x49A8, 0x54FE, 0x48B6, 0x4FEB, 0xD21E, 0xCA0C, 0xD34F, 0xD57E, 0x51E6, 0x5435, 0x4AA4, 0x57D9, 0xD1F7, 0xD03B, 0x5148, 0xD241,
    0x543B, 0xD057, 0x5569, 0xD879, 0xD5E9, 0x54FA, 0x5381, 0x510D, 0xC82B, 0x4E81, 0x473A, 0x41B9, 0xCD1D, 0xD3C8, 0x4E00, 0x56F5, 0x4CF8, 0xC934, 0xD069, 0xD1C3,
    0xCD42, 0x5158, 0x4FFC, 0x56DA, 0xD4A6, 0x4D80, 0x54CA, 0x46C6, 0xD1B6, 0x55BB, 0x505F, 0x52BD, 0xD9A2, 0xD1BF, 0xD204, 0xD699, 0xD484, 0x4AAF, 0xD2F7, 0xD312,
    0xC93E, 0xD55B, 0x5662, 0x5124, 0xD087, 0x53FF, 0x5019, 0x5893, 0xC629, 0x510E, 0x458F, 0xCF7E, 0x559E, 0xCD76, 0x439D, 0x4C4B, 0xD925, 0x5346, 0x5229, 0xD81A,
    0xD167, 0x5141, 0xD044, 0x5472, 0xCFC0, 0x5142, 0x56EE, 0xD8C7, 0xD5E1, 0x5231, 0x5801, 0x511E, 0xD8AC, 0x53FC, 0x490C, 0xD324, 0x4EA8, 0xBCC3, 0x4ABC, 0xD519,
    0x5475, 0x57A6, 0xD746, 0xC094, 0x5010, 0xD015, 0xC95D, 0x3B5A, 0xCDDE, 0x5250, 0x5401, 0xD090, 0xC859, 0x55CF, 0x4C60, 0x4C88, 0x504D, 0xCC4F, 0xD229, 0xD357,
    0x50FD, 0x560F, 0x511C, 0x51E0, 0xD396, 0xD0B1, 0x544A, 0xD152, 0x4F48, 0x4423, 0xD6EC, 0x4E1A, 0x53B3, 0xD66E, 0xCCD8, 0xD593, 0x42D7, 0x52AE, 0x50D6, 0xC8C7,
    0xD328, 0x4594, 0x5009, 0x5350, 0xCAF4, 0xD12E, 0x4DD3, 0xD3EB, 0xD3BD, 0xD405, 0x5485, 0x56BF, 0xD4C4, 0x4C6D, 0x3EFB, 0xD21D, 0x3ED5, 0xD04D, 0xC2E4, 0xD2DA,
    0x4B29, 0xC7B3, 0xD7DB, 0x5463, 0xD4F5, 0xD4D9, 0x4EBC, 0xC4F6, 0x40E9, 0x50A3, 0x4F61, 0x3259, 0x5512, 0x505E, 0x41C4, 0xC45B, 0xC739, 0xC85D, 0x53E3, 0xCC9B,
    0x507B, 0x56DA, 0x4DD1, 0x4E0D, 0x4D8B, 0xCED4, 0x471F, 0x54B9, 0xD41D, 0xCFA5, 0xC163, 0xD10A, 0xB32C, 0xC938, 0x52D2, 0xCE8E, 0xD660, 0x500D, 0x56E9, 0xD1E5,
    0xC8A4, 0xC90A, 0xD458, 0x5065, 0xC3CB, 0x521E, 0x4CBC, 0xCD0F, 0xCD17, 0xCF55, 0x4978, 0xC8E7, 0xD47B, 0xD01D, 0x52B2, 0x53FB, 0xCC76, 0x500D, 0x51B7, 0xCBA2,
    0xC964, 0x4C2E, 0xD210, 0x5792, 0xD753, 0x4F7C, 0xBE13, 0xD0B8, 0x52A6, 0x575E, 0xD136, 0xD20E, 0x4E68, 0xD0FC, 0x3EF9, 0x49D0, 0x50F1, 0xCDEE, 0xCB0A, 0xD156,
    0xCEE4, 0x4F48, 0x4C81, 0xC5C3, 0xD0B4, 0xD1B3, 0xC622, 0x53DF, 0x55AB, 0x52AB, 0xCD94, 0x53E3, 0xD340, 0xCB7E, 0x4C19, 0xC85C, 0xD2CB, 0xD2D2, 0x435D, 0x550A,
    0xCBF5, 0x48E6, 0x52BE, 0xBF0B, 0xD34C, 0x4C70, 0xCDC1, 0x527A, 0xC8D0, 0xD324, 0xD43E, 0x4D66, 0x5293, 0xD574, 0x51F6, 0x558B, 0xC9D9, 0xD245, 0xD26D, 0x528E,
    0xD34D, 0xD023, 0xCA40, 0x53DE, 0x52B7, 0x5573, 0x449D, 0x4CE5, 0xBDBE, 0x5191, 0x497F, 0xC5C8, 0x5291, 0xD1CD, 0x4EE0, 0xCC17, 0x5428, 0x57D9, 0xC987, 0x4CE9,
    0xC9BE, 0x4C11, 0x444C, 0x4FA4, 0x495F, 0x51AC, 0x4CB3, 0xCFC5, 0x5132, 0x50C6, 0x4653, 0xD017, 0xD560, 0x4B27, 0xD177, 0xC87E, 0xC853, 0x5781, 0xD20B, 0xC6C4,
    0x4D05, 0x549E, 0xD2C4, 0xC816, 0xD32B, 0xD4F8, 0xC7C2, 0x51EE, 0xD556, 0x5500, 0x4B51, 0x56EA, 0x559F, 0x5766, 0xD636, 0x50B3, 0x4DA3, 0x5661, 0xC7D6, 0xD30D,
    0x4560, 0xD83A, 0x50C4, 0xC61A, 0x4DE6, 0xD006, 0xD4C8, 0x4EFD, 0x50AC, 0xD4FB, 0x5106, 0xD619, 0x56AC, 0x54F0, 0x4CF8, 0xD0AC, 0xCD4F, 0xD7C5, 0x5272, 0x4F54,
    0x4FF2, 0x507D, 0xD4AA, 0x5454, 0xCE9D, 0xD270, 0x56AF, 0xD314, 0xCE36, 0x56A8, 0x4EEC, 0x523F, 0x4073, 0x3C29, 0xD274, 0xD470, 0xD84A, 0x531A, 0xC76A, 0x46DF,
    0xD28C, 0xD00B, 0x4B06, 0x556D, 0x5418, 0xD0F4, 0x56CE, 0x56C6, 0xCC5F, 0xD40A, 0xCAAF, 0xCADA, 0xD49E, 0x5547, 0x5255, 0xD305, 0xC63D, 0xCE70, 0x4D35, 0xC62E,
    0x4788, 0x51F8, 0x534E, 0xD31C, 0xD43D, 0xCA9C, 0xCE5F, 0xC891, 0x5026, 0x543D, 0xD46D, 0xD468, 0xC468, 0x55DA, 0x53BC, 0x4E7F, 0xD282, 0xD425, 0x491B, 0xD379,
    0x554A, 0xCF11, 0xD42B, 0xCB90, 0x5371, 0xC9C7, 0xD471, 0xD489, 0xD5F2, 0xD40B, 0x4E0D, 0xCCD7, 0xC1B5, 0x4CEB, 0xD047, 0x4C70, 0xCF71, 0x4E95, 0xCA35, 0x52E6,
    0xD68E, 0x4224, 0xD276, 0x4D08, 0x519F, 0x4E94, 0xBCAE, 0xD4EE, 0x5611, 0xC64E, 0xCF14, 0xCB2C, 0xCA17, 0xD19F, 0xC9AF, 0x54CB, 0xCD26, 0xCF21, 0xD0A5, 0x5264,
    0xD3B1, 0x4F9B, 0x4C85, 0xD1B8, 0xD04F, 0xD427, 0x4F72, 0xCD1B, 0x55A6, 0xCF99, 0xD44D, 0x571C, 0x4CB0, 0xD20D, 0xD547, 0x5361, 0xD440, 0xD1C5, 0x566B, 0x4DE0,
    0xD5A4, 0x4F2E, 0xD09A, 0xD26D, 0x5413, 0x4D11, 0xD39E, 0x4EC7, 0x560E, 0x5247, 0xCDC2, 0x54FD, 0xC24A, 0x51B8, 0xD2A5, 0xCBA6, 0x531B, 0x4C81, 0x53F9, 0x49BD,
    0x40F5, 0x51AA, 0x5062, 0xCCB9, 0x4C47, 0x4634, 0x51DB, 0xD1AA, 0xBCB5, 0xCAA6, 0xBF38, 0x514F, 0xD317, 0x486B, 0xC8BF, 0xB326, 0x4A71, 0x50DB, 0xB2E5, 0x4575,
    0x4635, 0x4881, 0xC721, 0xD1DD, 0x5216, 0xCFBE, 0x4C2D, 0xD07B, 0xD157, 0x54E2, 0xD15A, 0x3FDE, 0xD02C, 0x5431, 0xC49A, 0xD09D, 0xD183, 0x5254, 0xD779, 0x52D7,
    0xCBC6, 0xD4BB, 0xD59F, 0x52B7, 0x5136, 0xD188, 0xD095, 0xD269, 0x4072, 0x4C24, 0xD2E3, 0x523B, 0x4E7B, 0x5071, 0x539A, 0x518E, 0xD64A, 0xCC94, 0x51CD, 0x4CA7,
    0xD0F5, 0x4576, 0xD65F, 0x4728, 0xCC53, 0x5033, 0x51BB, 0xD3B7, 0x525C, 0x52AE, 0xCB9D, 0xD385, 0xCBED, 0xD3B2, 0x4E63, 0xD269, 0x54B4, 0x470A, 0x56E9, 0x58DC,
    0xC0E6, 0x551D, 0xD407, 0x4DEE, 0x4EAF, 0x544D, 0xD30E, 0x48E9, 0x4988, 0x4DE0, 0x4DC5, 0x51E2, 0x430E, 0x5261, 0xCE13, 0x4477, 0xCF87, 0xD284, 0xD29A, 0xD3AE,
    0xD1C7, 0xCCD0, 0xD6BB, 0x51AB, 0xC33A, 0xD11C, 0xD20D, 0x49DD, 0x4F86, 0x541B, 0x5150, 0xD2C4, 0xC498, 0xCEC8, 0x443F, 0x51C3, 0x4C6E, 0xCE9D, 0xCCED, 0xCCC3,
    0x5411, 0x5067, 0xCFB5, 0x579D, 0xCC92, 0x4516, 0xCCDF, 0xD074, 0xD7BE, 0xD241, 0xC863, 0x55AB, 0xCFF3, 0x4F7D, 0x494D, 0x51AE, 0x503A, 0xC7C9, 0x5763, 0xD512,
    0x4CFE, 0xD48A, 0x438E, 0x4FDE, 0x4C9D, 0x4C2A, 0xD8BE, 0xC596, 0xCE67, 0xD4AB, 0xD490, 0x486D, 0x4DE7, 0xCCC9, 0x4FFF, 0xCB75, 0xCC6E, 0xD0D4, 0xD753, 0x5549,
    0x53EB, 0x56D3, 0xCAA6, 0x5825, 0xD2E7, 0xD30F, 0x554B, 0x4968, 0xD64B, 0xD4BE, 0xD2F4, 0x49C9, 0xC75B, 0x5492, 0xC862, 0x5260, 0x4CAA, 0x52F3, 0xD122, 0xD113,
    0x464B, 0x515B, 0xBC44, 0xCE83, 0x508D, 0xCCB5, 0x3AF3, 0x464F, 0x4C59, 0x4E01, 0xD194, 0x4DC4, 0xD432, 0x52D9, 0xC9B6, 0x524A, 0xCF0A, 0x551D, 0xCDB5, 0xCCBB,
    0xD428, 0x52E1, 0xCDAC, 0x34FD, 0xD0D2, 0x4F03, 0x5082, 0xD155, 0x52CC, 0xCCAF, 0x5148, 0xD2AE, 0xD2A5, 0xD05F, 0x510B, 0xC979, 0xC43E, 0x50A1, 0xCB51, 0xD1CB,
    0x54C0, 0x5048, 0x438E, 0xD16B, 0x4903, 0xCEE3, 0xD2B9, 0x4C8C, 0x5488, 0x4F5A, 0x498D, 0x447B, 0xD220, 0xC65C, 0xD174, 0x4F7F, 0xC171, 0x3BED, 0x4DDC, 0xCC23,
    0x4CBC, 0xC9FC, 0xCD62, 0x4D0A, 0x4D71, 0x4BA8, 0xD081, 0x5106, 0x49AD, 0x4FB1, 0xD347, 0xD776, 0xC911, 0xD47F, 0xD867, 0xD751, 0xD0B6, 0xD239, 0x540A, 0x50D6,
    0x3B56, 0x4F2C, 0x4F0E, 0x486A, 0xCD5A, 0xCDE4, 0xD4EA, 0xCED8, 0x4E3B, 0x5190, 0x4033, 0x4EDA, 0xCC7B, 0xD510, 0xD3C4, 0x45EB, 0xC964, 0xD47E, 0x45DF, 0xBC22,
    0x5264, 0x4CC2, 0x479B, 0xD091, 0x523E, 0xC850, 0xD156, 0x4F5C, 0x4160, 0xD389, 0x4C6B, 0xCDE3, 0x5859, 0xD0F3, 0xD303, 0x5545, 0xD550, 0xD35E, 0x36A5, 0x546A,
    0x4211, 0xD307, 0xC5C2, 0x2CCD, 0xD101, 0xC2B5, 0xD14C, 0xD29A, 0xD660, 0x51F8, 0x4B5C, 0x3EC9, 0xD54E, 0xD865, 0xCCCE, 0xD66E, 0xD0A4, 0x43B5, 0x4F76, 0x4D80,
    0x51FB, 0xC9BA, 0x4F9E, 0xC2CD, 0x4CBF, 0x44D6, 0x544E, 0xD514, 0xCA51, 0x5434, 0xD51D, 0xD15E, 0x4FBB, 0xCFA1, 0x5367, 0x5340, 0xD29B, 0x4506, 0x555F, 0xCDB8,
    0x4CB6, 0xCF06, 0x4DEC, 0x4FD5, 0x4E3A, 0x5741, 0x551C, 0x5190, 0xD461, 0x526F, 0xD36A, 0x5361, 0xCFEE, 0xD516, 0x56D6, 0xD3BC, 0x4DE2, 0xCD12, 0xD3F4, 0xD0EA,
    0x50FD, 0xCCC5, 0xD703, 0xC79A, 0x51AF, 0xC401, 0xC82D, 0x560A, 0xC6E2, 0x5427, 0x4C42, 0xCF43, 0xCD42, 0x4E25, 0xCEF4, 0x467E, 0x506C, 0x4ACA, 0x554B, 0xD5C3,
    0xD4B7, 0x5570, 0xCFC6, 0x5000, 0x42F4, 0x541B, 0x43BD, 0xC78A, 0x514E, 0xD190, 0x541A, 0x4EFE, 0x4C96, 0x503D, 0xC398, 0x5425, 0x5103, 0x531B, 0xD07B, 0x4F04,
    0x5045, 0x4BA1, 0xD531, 0xC595, 0x4C40, 0x5584, 0x5339, 0x5680, 0xCF8C, 0xD5BF, 0xD4C1, 0xC6BC, 0xD58B, 0x5705, 0x5078, 0xC786, 0xD126, 0xD208, 0xCB71, 0xD5B9,
    0xD999, 0xD370, 0x54F0, 0x47F2, 0x4DB9, 0x49C3, 0xD326, 0x53CA, 0xD580, 0xD45B, 0x4C1F, 0x4508, 0x4480, 0xCAE9, 0xD5FD, 0xD230, 0x5545, 0xD64A, 0x484B, 0x5555,
    0xCCD7, 0x556B, 0xD809, 0xD3F8, 0x54C7, 0xD6B8, 0xD0BE, 0x508A, 0x554F, 0xC742, 0xD3CD, 0x41B0, 0xD424, 0xD026, 0x50D1, 0x52CF, 0x51BA, 0x549C, 0xD08F, 0x5170,
    0xD0C7, 0x535E, 0x5217, 0x518A, 0x485B, 0x4D34, 0xD424, 0xD0A7, 0xD1C8, 0xCA46, 0xD43E, 0xCB36, 0xCB28, 0xC85E, 0x4A41, 0x4AF7, 0x5308, 0xC325, 0x5114, 0xD377,
    0x55A8, 0xD1B3, 0x5204, 0xCC29, 0xCB90, 0x4EB1, 0x501B, 0x4A50, 0xD56F, 0xD33A, 0x54BE, 0x54D7, 0xCBEC, 0xD08B, 0xCC8E, 0xD185, 0xD396, 0xD283, 0x5377, 0x5143,
    0xCC40, 0x49B5, 0x48C2, 0xCED7, 0x48F8, 0xBEFE, 0xD364, 0xC6C7, 0x485D, 0xCAE8, 0x54EE, 0xC443, 0xC6E9, 0xD5A2, 0xD175, 0x4E41, 0xCF8F, 0x528C, 0xCC4D, 0x5531,
    0xBB76, 0x54F1, 0xC3F1, 0x4C2D, 0xD492, 0x4396, 0x4DC3, 0xD142, 0xD5AA, 0x5641, 0xCEBE, 0xD48E, 0xD0E9, 0xD56F, 0x41C5, 0xCC46, 0xD43D, 0xC987, 0xCD8A, 0xD5E4,
    0x51C6, 0xD083, 0x5489, 0xD56B, 0x43C6, 0x4887, 0xBB51, 0x53BA, 0xD403, 0xCE31, 0xCD20, 0x51EA, 0x51C6, 0x4F7F, 0xD293, 0x3C58, 0x4EC5, 0x44FD, 0xCC4B, 0x4F4D,
    0xCC1A, 0xD130, 0x532E, 0x50F0, 0x4CA9, 0x4F0E, 0xD0D1, 0x4A18, 0x4B1D, 0x3D81, 0x4D8F, 0x541D, 0x5280, 0x4712, 0xD64F, 0xD2A9, 0xCE01, 0xD62F, 0xD528, 0xD11A,
    0xD1F2, 0xCD3B, 0xC194, 0x52EE, 0x4C52, 0x520A, 0x4813, 0x51BA, 0xD407, 0xCD20, 0xD5EA, 0xCC62, 0x511F, 0xD0D5, 0x404D, 0xC92A, 0x5228, 0xC8A7, 0xCD0C, 0x4816,
    0x549F, 0x499F, 0x50F1, 0xD5E9, 0x524E, 0x4603, 0x545A, 0x4BF1, 0x5011, 0xD020, 0x4292, 0xCC23, 0x548B, 0xBF14, 0x50C3, 0x562B, 0x544E, 0xD2FA, 0xD1FD, 0xC7D4,
    0xD091, 0xD23D, 0xC834, 0xD2A0, 0xD32C, 0xCA67, 0x525F, 0xCEAE, 0xCB9D, 0x57D9, 0xCF32, 0x5300, 0xCD77, 0x54C3, 0xCDA4, 0xD02D, 0xD1B9, 0xD03F, 0x4273, 0xCF35,
    0x550B, 0xD314, 0xC945, 0x4C55, 0xD6B1, 0x49E2, 0xCCD4, 0xCA7F, 0x5333, 0xCD36, 0xBC59, 0xC431, 0x50C2, 0x55B3, 0x549D, 0xCBF7, 0xD4AC, 0xCC3E, 0xD0CD, 0x4F04,
    0x54E4, 0xC188, 0xCA3A, 0x5459, 0x4A22, 0x4789, 0xD3FB, 0xD13C, 0x552A, 0xD4F7, 0x5140, 0xD376, 0x50E5, 0x4CDC, 0xD0C3, 0x533F, 0xC9E9, 0xCA0D, 0x4CEA, 0xC77A,
    0xCC25, 0x4F5B, 0x5106, 0x561E, 0xD020, 0x4D4C, 0xD28C, 0x4C7C, 0xD138, 0x49D2, 0x5492, 0x4C1B, 0xCDC2, 0xCCC8, 0x564A, 0x41CC, 0xD120, 0x4D7E, 0x4D96, 0xD3CD,
    0x528E, 0x4645, 0xD3B0, 0xCCDE, 0x545D, 0xCA53, 0x4987, 0x4F35, 0x49BC, 0x4EB8, 0x44B4, 0xD344, 0x5249, 0x5082, 0x55D1, 0xC70C, 0x537D, 0x4C84, 0x5425, 0x5004,
    0xCEEC, 0x5228, 0x3C7A, 0x5431, 0x4935, 0x4596, 0xCE02, 0xB06E, 0xD4E6, 0x5652, 0xCA7A, 0x4005, 0xCCBA, 0x522E, 0x4D77, 0x4B7F, 0xD526, 0x4E31, 0x4923, 0xD40E,
    0xC88E, 0xCE6B, 0x49EA, 0x3D95, 0x538F, 0x52D8, 0xD44C, 0x50C0, 0xD1C0, 0xCD59, 0xCC80, 0x550E, 0xD530, 0xD3B4, 0xD740, 0x5790, 0x4B78, 0xD4F7, 0x50B2, 0xC6E6,
    0x55E6, 0xD7E9, 0x5144, 0x52E6, 0x3E11, 0x4EE6, 0xD0B2, 0xD040, 0x565B, 0xD570, 0xD019, 0x4179, 0x555A, 0xD394, 0xD23C, 0xD81E, 0xCD41, 0x54B9, 0x57A8, 0xD074,
    0x4F54, 0xD082, 0xCC04, 0xCAF0, 0x5757, 0x50C3, 0xD2CE, 0x4FEC, 0x539A, 0xD023, 0xCC50, 0xCC3D, 0x4805, 0x4923, 0x4CB4, 0x534B, 0x527C, 0x54ED, 0xD82B, 0xD5AB,
    0x52F1, 0xD176, 0xD0E1, 0xD22C, 0xD3B4, 0x5377, 0xD1BF, 0xD25A, 0x5052, 0xD281, 0xB885, 0xB8A9, 0xCD0D, 0xD597, 0xB76C, 0x51AC, 0xD20B, 0x4596, 0xCF7C, 0x53A7,
    0xD46E, 0x40F6, 0xCCBA, 0xD1FF, 0x5403, 0xCC60, 0xCE8B, 0x4E1D, 0xCCB8, 0xCF37, 0xD089, 0xD106, 0x4C97, 0x584A, 0xD0CE, 0xD261, 0xCD08, 0x510C, 0x4C1A, 0xCFE5,
    0xD05D, 0xCBF8, 0xD23A, 0x4C33, 0x4CAF, 0xCFEB, 0x50E0, 0x48BE, 0xD59D, 0xD303, 0x5022, 0x4442, 0xD4D9, 0x5169, 0xD48F, 0xCA3F, 0x4EF8, 0xD3F1, 0xCFB3, 0x5839,
    0xCA62, 0xCC8D, 0xD631, 0xCC92, 0xCAFF, 0x5363, 0xC5E6, 0xCCD4, 0x5164, 0xD318, 0x4916, 0x5272, 0x4D70, 0xCDE3, 0x4630, 0xD559, 0xCA02, 0xD362, 0x42AE, 0x5852,
    0xD8CD, 0xD507, 0x4B37, 0xD145, 0xD44A, 0xCBA0, 0x5526, 0xC603, 0xCC8D, 0xC664, 0x554A, 0x554B, 0x4F69, 0x5421, 0x5299, 0xCC1C, 0x48BA, 0xD0B5, 0xCE45, 0x559B,
    0xD29F, 0x40A2, 0xD8E1, 0xC46C, 0xD512, 0x52AD, 0xD0C5, 0x4821, 0x51DF, 0x547F, 0xD82D, 0xD126, 0xD801, 0x3EF9, 0xD4B1, 0xD2A4, 0x5171, 0x4E5B, 0x5203, 0x56F5,
    0xCC8F, 0xD5C3, 0xC717, 0x551F, 0xCA7F, 0xCE2C, 0x386B, 0xD29D, 0xD73C, 0xC6E7, 0x5490, 0xCDFF, 0xD3B1, 0x540E, 0x4E09, 0xD844, 0xCC32, 0x3F0E, 0x491E, 0x53F0,
    0x5225, 0xD174, 0xC4D3, 0xD0AB, 0x56EC, 0x52EA, 0xD19F, 0x5084, 0x5411, 0xC820, 0x4826, 0x56F3, 0xD718, 0xD3F8, 0x527D, 0x4DE2, 0xD299, 0xB9F8, 0x4BD3, 0x5115,
    0xD2D5, 0xD04C, 0xD370, 0x5472, 0x4BD5, 0x4FA1, 0x5063, 0xBDDC, 0xD423, 0x48A4, 0x55D5, 0x3F2E, 0xCC56, 0xCFF7, 0x5765, 0xD324, 0x3C56, 0xCD6C, 0xD311, 0xCAF4,
    0xD386, 0x5017, 0x523E, 0xD6F4, 0x5176, 0xD5FB, 0xD155, 0x56FC, 0xCC17, 0x5644, 0xD216, 0xD13D, 0x5469, 0x50B3, 0x54B5, 0x5070, 0xD818, 0xC4CF, 0xCF87, 0x4435,
    0x5132, 0xC7E4, 0x4D8C, 0xC613, 0x54DE, 0xCACD, 0xD02C, 0x4C9D, 0xD1E9, 0x508A, 0xD1DB, 0x4726, 0xCB27, 0xD2AC, 0xD463, 0xCAEE, 0x4EF7, 0xD39F, 0x44B8, 0xCA1E,
    0x49E1, 0xD33B, 0xD23F, 0xB52D, 0x497D, 0xD52F, 0xCED2, 0x51D7, 0xD116, 0xD538, 0xCD65, 0x5429, 0xD01C, 0x47A6, 0xD6AA, 0xCE1D, 0xD698, 0x51D8, 0x5544, 0xC61A,
    0xBCA1, 0x43E8, 0xD08E, 0xCD93, 0xCFFE, 0x4CC4, 0xD04C, 0xCB55, 0x4F00, 0x49F0, 0x4DE7, 0x5405, 0xC9C1, 0x546F, 0x5446, 0xC658, 0x4F50, 0x5105, 0xC1E2, 0x496F,
    0xD0F1, 0x5921, 0xCE02, 0xD702, 0xCE38, 0x5091, 0xD501, 0x4FBD, 0x3D12, 0xD2AE, 0xCB19, 0xD5BF, 0x54AC, 0xD781, 0xD848, 0x4C61, 0xD7CE, 0xCADB, 0xCD86, 0x556B,
    0xCC50, 0x54DA, 0x49D2, 0xD4FD, 0x49D7, 0x534D, 0xCF1C, 0x545D, 0x5315, 0xD1BC, 0xD579, 0xCB8D, 0x4866, 0xD529, 0xCC0F, 0x3A91, 0x5673, 0xD22B, 0x53A3, 0xD3E2,
    0xD217, 0x4F77, 0x56F9, 0x5949, 0x4E6A, 0xD0A1, 0x4855, 0xD5D7, 0xD7E4, 0x5441, 0xCA66, 0xCA84, 0xD788, 0x450A, 0x53CA, 0x533B, 0xD0E7, 0x4C51, 0xD4CA, 0xD040,
    0xD4E0, 0xD524, 0x56B5, 0xD5BD, 0xCA99, 0x5191, 0x5498, 0x558F, 0xD70F, 0x564F, 0x487A, 0xD40C, 0x5768, 0x5763, 0xD544, 0x3CAF, 0xD4C3, 0xD55D, 0x5770, 0xCF2F,
    0xD333, 0xCF6E, 0xD125, 0xC8A7, 0xC2BE, 0x54A1, 0x550F, 0x4C90, 0x54C8, 0x4E2D, 0x4906, 0xD014, 0x547E, 0xCF11, 0x55ED, 0x5596, 0xD159, 0x4EFA, 0xCF8B, 0x52BD,
    0x3F08, 0x471B, 0xD302, 0x5904, 0xCF20, 0xCC61, 0x5360, 0xCDE9, 0x4560, 0x53BE, 0xCF5D, 0x4634, 0x49DA, 0xA50D, 0x518B, 0xCD04, 0x4111, 0x4ED8, 0xC043, 0xD3B6,
    0x4FA5, 0x54E7, 0xD1D3, 0x3F0D, 0xD0B9, 0x4682, 0x50C1, 0x4FB6, 0x5608, 0x582A, 0xD4FF, 0x50F9, 0x5548, 0x50A4, 0x5062, 0xD071, 0x4D68, 0x4995, 0x4FCF, 0xCF15,
    0x477D, 0x517C, 0xCCA6, 0x4DEE, 0x4F90, 0x4D1E, 0x523A, 0xD2A0, 0xD0DE, 0x3DC9, 0xD169, 0x553B, 0xCEEE, 0xCAA4, 0xD4A5, 0xC665, 0xC636, 0xC8BC, 0x51C3, 0xCCBC,
    0xD28F, 0xD5B0, 0xCF92, 0xD062, 0x530D, 0x5492, 0x53EE, 0x519C, 0x5268, 0x4D5C, 0xC5F0, 0xCF53, 0x54A7, 0xD266, 0xCA27, 0x509B, 0x3E3B, 0x4E92, 0x454F, 0x4E21,
    0xCE3D, 0xD4F6, 0xC504, 0x4AB0, 0xC994, 0xCFFC, 0xC5F5, 0xD442, 0x43D9, 0xD33B, 0xD155, 0x51F6, 0x53CB, 0xD195, 0xCAC1, 0x4D28, 0xCCD4, 0x531A, 0x4DBA, 0x532C,
    0x3C93, 0xD247, 0xCE7D, 0x4DDB, 0xC5CC, 0x51C4, 0x5428, 0x5237, 0x5294, 0xCC0A, 0x4F6F, 0x445A, 0x4E39, 0xCBEC, 0xBC6E, 0x4C1A, 0xD41B, 0xCF24, 0xCF68, 0x500A,
    0xD04E, 0x53D4, 0xD44C, 0xD09E, 0xD551, 0xD11A, 0x4E67, 0xD47B, 0x527D, 0x56B4, 0xD4E8, 0x5405, 0xD568, 0xD295, 0xD0DE, 0x5245, 0x4988, 0xD133, 0xC7C2, 0x4ED3,
    0x57B6, 0xD080, 0x53F4, 0x4626, 0x497E, 0x4696, 0x5275, 0xD444, 0x56F8, 0x5460, 0xD42B, 0x4F38, 0xD152, 0x4E76, 0x5418, 0xC41F, 0xD419, 0x5818, 0x5540, 0xD45F,
    0x5143, 0x5280, 0x4820, 0x5241, 0xD387, 0xCD7C, 0xD20F, 0xD016, 0xD361, 0x4EF7, 0xD0DD, 0xCD71, 0x552B, 0x4FB2, 0x49DC, 0xD16B, 0x4E8E, 0xD1E0, 0xD17C, 0xC8F5,
    0x46C8, 0xD069, 0x51EF, 0x4544, 0xCCB6, 0x50BD, 0x4FF8, 0xCD3D, 0xD18B, 0xCADB, 0xD56D, 0x4CEB, 0x52D6, 0xD735, 0x540D, 0xD20D, 0x3A62, 0xCE0C, 0xD4AD, 0x53E3,
    0x4C6A, 0xC932, 0xCDFF, 0x4F43, 0x4B87, 0x557C, 0x3CF5, 0x55EF, 0x5026, 0xD522, 0x5287, 0xC100, 0x4EBA, 0x4CAD, 0xCA4E, 0xC452, 0x51D7, 0x509B, 0x4AB9, 0xD48C,
    0x4B1A, 0x5446, 0xD0C5, 0x4ABA, 0x4DFC, 0x56D5, 0xD619, 0xCF30, 0xD22B, 0xD1BE, 0x46DD, 0x5178, 0x5429, 0xCDA3, 0x4E14, 0x3B4A, 0x50FD, 0x4CE5, 0x47E6, 0x5486,
    0xC841, 0xC9BE, 0xD003, 0x56E4, 0xC81C, 0x500C, 0x52DD, 0xC7D0, 0x574D, 0x4D86, 0xCFFF, 0xD3AA, 0xD80B, 0xC20F, 0x5215, 0x4A0A, 0xC820, 0x4CBB, 0xD302, 0x537A,
    0x4DDA, 0xD4DC, 0xD060, 0x513F, 0x5483, 0x508A, 0x4E43, 0x551C, 0xCEA5, 0x5497, 0xCA50, 0x501E, 0xD75D, 0xCC4C, 0x4A64, 0x4B3C, 0x50CA, 0x505D, 0xCA94, 0x5186,
    0x4E67, 0x5229, 0xD793, 0xD507, 0xCDC4, 0xD4B2, 0xD0E6, 0xC870, 0xBBF3, 0xBF0C, 0xD19F, 0xD1D9, 0x4C8A, 0xC83D, 0xD4B6, 0xD29C, 0xC92F, 0xD213, 0x4C7A, 0xCF99,
    0xD3A9, 0xD336, 0x437B, 0xD36C, 0xCC86, 0x545F, 0xCF66, 0x4FB7, 0xD64C, 0x3430, 0x4A88, 0xD4A3, 0xD664, 0x54DC, 0x5635, 0x4D47, 0xC96C, 0xCB08, 0xD49E, 0xD51C,
    0x52EC, 0x53FD, 0x54A4, 0xCE46, 0xCD33, 0x5137, 0x54D8, 0xC613, 0x543E, 0xCA5A, 0xD52A, 0xD46D, 0xCD10, 0xD21B, 0xD64E, 0xD819, 0x4DA1, 0x4B41, 0xD286, 0xD4F8,
    0x3DBF, 0xC0B4, 0x553B, 0xCF60, 0x4CEF, 0x54FF, 0x537C, 0x4C71, 0xD112, 0x4F76, 0xC9D8, 0x4A0D, 0xC9D7, 0xD67D, 0x4DE8, 0xCC86, 0x5182, 0xD3E3, 0xC718, 0x456E,
    0xD45D, 0xD151, 0x5282, 0x52D8, 0xD049, 0xD021, 0xD3C1, 0xD2DC, 0xCB8E, 0xBF21, 0x57F1, 0xCE74, 0xD2A5, 0x5237, 0x4EC7, 0xD13F, 0xD383, 0x5007, 0x55A7, 0xCD77,
    0x4587, 0xD057, 0x4C86, 0xD4DB, 0x47F3, 0x4916, 0x4A45, 0x4B70, 0x5602, 0xC5A3, 0xD5AE, 0xD1D8, 0x4514, 0x5326, 0x497B, 0x4BC4, 0x556C, 0x54E5, 0xC8A7, 0xD0BB,
    0x5096, 0x53AB, 0xD0D8, 0x496F, 0xCFAE, 0x57C6, 0x5104, 0x56A9, 0x5307, 0xD5F9, 0x346E, 0xBF00, 0x5315, 0xD2C1, 0xBBC0, 0x56A7, 0x5011, 0xD7CD, 0xD35B, 0x4E37,
    0xD6A9, 0x54B8, 0x5132, 0x4DEB, 0x5624, 0xD345, 0x4EE1, 0xBBD3, 0x5171, 0xD0F6, 0x3CBB, 0xCF28, 0x497F, 0xD026, 0x5431, 0xCDA4, 0xD4D6, 0xD544, 0x52D2, 0xD2FA,
    0xD35E, 0x54DB, 0xD108, 0xD0C2, 0xD890, 0x5571, 0xD5B8, 0xD4F7, 0xD4F7, 0x4F13, 0x4C19, 0x522F, 0x521F, 0xC0B6, 0x57FB, 0x580B, 0xD52A, 0x53BE, 0x5038, 0x4E28,
    0xD279, 0x506F, 0x4C9C, 0xD53B, 0x4D4E, 0xD4D4, 0x5597, 0xCDEE, 0x4E3F, 0x507B, 0x452A, 0xB924, 0xD460, 0xD2EC, 0x5279, 0xD52A, 0x5413, 0x4AA7, 0x4D51, 0xD745,
    0x4DE9, 0x549F, 0x5449, 0x5152, 0x4F8E, 0xD397, 0x48C7, 0x51D3, 0xD0DF, 0xD117, 0xC4FC, 0xCC09, 0xC62B, 0x53F4, 0xD477, 0xD003, 0xD451, 0xD35B, 0xD0A4, 0x4860,
    0x3729, 0x53BF, 0x49DB, 0x4854, 0xD27D, 0x518B, 0x5231, 0x4BFB, 0x5026, 0xD22E, 0x4BE2, 0x54A6, 0x5850, 0x50AF, 0xD00E, 0x4B89, 0x520D, 0xCF24, 0x52D3, 0xD208,
    0x521A, 0xCE04, 0xD341, 0x4D75, 0x4F88, 0x4905, 0xD369, 0x50B7, 0x49AD, 0x4D8D, 0x53CF, 0x4E9A, 0x4EE0, 0xC608, 0x50F3, 0xC829, 0x4EC3, 0x3CE7, 0xC461, 0x4D27,
    0x4AFB, 0xD51B, 0xD2DF, 0x53E8, 0xD191, 0xD256, 0xD079, 0x4B1D, 0xD496, 0xCC68, 0xD26E, 0xD01A, 0xD6CA, 0x5698, 0xD407, 0x4FAA, 0xD435, 0xD556, 0xD129, 0xD1BE,
    0xCCF7, 0xC743, 0x4DC4, 0x511D, 0xCC9C, 0x4C69, 0x4D13, 0x55A5, 0xD264, 0xCB05, 0xC9E6, 0xD8C7, 0x4681, 0x5712, 0x4E29, 0xCCE4, 0x562F, 0xCEB4, 0x589E, 0x516B,
    0xC8B4, 0xCE99, 0x5206, 0xD837, 0x4EB9, 0x5291, 0x4A5B, 0x521A, 0xD46A, 0x5550, 0x564B, 0xD1DC, 0x5081, 0x52B8, 0xC6D7, 0xD1ED, 0x483E, 0xC277, 0x4EE2, 0x463F,
    0x4CC8, 0x5130, 0xD452, 0x510A, 0xC3DA, 0x51CE, 0x4A2F, 0x541A, 0xD012, 0xCA7B, 0xD346, 0xCEA4, 0x4A90, 0xD6E3, 0xD4D9, 0xCF78, 0x5211, 0xCC82, 0x45C8, 0x5006,
    0xCD16, 0xC9D0, 0xCA97, 0x4E95, 0x528B, 0xD9B2, 0x4B28, 0x577A, 0xD5A1, 0x4B7C, 0xD2F4, 0xCC34, 0xD2E9, 0xCF21, 0x52CE, 0x4945, 0x5174, 0x49C7, 0x449D, 0x5403,
    0xC9E6, 0x4C5A, 0xD3BB, 0x5255, 0xC809, 0xBD7C, 0x5455, 0x4A1D, 0xC8DE, 0x52B9, 0x4449, 0x482B, 0x54A4, 0x4614, 0x46D5, 0xD42B, 0xC4F0, 0x5024, 0xD144, 0x53C1,
    0x436F, 0xCE88, 0xC962, 0x4097, 0xD219, 0xC4E8, 0xCB89, 0xD2BA, 0xCD4F, 0xCD24, 0xCC9E, 0xD3E9, 0xD499, 0xD440, 0xD25D, 0x4BB1, 0xD0E8, 0x51F7, 0xCF96, 0xD1AD,
    0x52BE, 0xD06A, 0x494A, 0xD276, 0xCFEC, 0x520F, 0x4B25, 0xD0D0, 0xC27C, 0x50DB, 0xD273, 0x4604, 0xD574, 0x4CA8, 0x545F, 0xD50E, 0xD4C3, 0xC8E3, 0x51F0, 0x52D8,
    0xD5A0, 0x5005, 0x453B, 0x5047, 0x505E, 0xD242, 0x551B, 0x5572, 0xCE64, 0xC571, 0x5546, 0x5628, 0xC436, 0x4F79, 0xD47F, 0xCA47, 0x4D79, 0xD0BA, 0xD1B9, 0x4C57,
    0x39D6, 0xCED1, 0xC990, 0xD09D, 0xD0DA, 0xCB28, 0xD3B9, 0xD638, 0xC350, 0x5433, 0x4FB3, 0x51C9, 0xC261, 0x52A0, 0x540D, 0x55AB, 0x523E, 0xD6D4, 0x4F52, 0x48DF,
    0x54D7, 0xD0D4, 0x4DCD, 0xCAD2, 0xD342, 0x506C, 0xCCAB, 0x4C9D, 0x52FC, 0xD30F, 0xC8A2, 0x4A6D, 0x4E8C, 0x536D, 0xCFC5, 0x4057, 0x5058, 0xD26D, 0x578E, 0xD03B,
    0x55B8, 0x5098, 0x4D4D, 0xD459, 0x3D73, 0x5696, 0xD5C7, 0xB061, 0xD562, 0x5542, 0x544C, 0x549A, 0xCE02, 0xD4FD, 0x54F8, 0xD419, 0xD856, 0xD556, 0x4E12, 0xD446,
    0xD8D9, 0xC019, 0xD073, 0x4CEE, 0x551E, 0x4C86, 0x4A8A, 0xD3EC, 0x504C, 0xD31F, 0x4DB8, 0x5485, 0x5703, 0x4CF8, 0xD07D, 0xD856, 0xD05D, 0x5054, 0xD1D3, 0x5260,
    0x4D01, 0xCC35, 0x4DFA, 0xD8BD, 0x527B, 0xC768, 0x3EA9, 0x4BB6, 0xCF5B, 0xCEE1, 0xC78C, 0x5035, 0xCF3D, 0x5568, 0xCA97, 0xD04F, 0x4A0C, 0x4F64, 0xD648, 0xCF08,
    0x5109, 0x5549, 0xD0EA, 0xCB88, 0x4A75, 0xCF47, 0xD4CE, 0x4951, 0x5161, 0x4C04, 0x4DEC, 0x55FE, 0xC911, 0x4EF1, 0x560E, 0x5117, 0xCF58, 0x458C, 0xD096, 0xD78A,
    0xCBCD, 0xCB57, 0x4EA6, 0xD2C2, 0x4C35, 0xCD7D, 0xD7C9, 0xCE0B, 0x5120, 0xD184, 0x4613, 0xC1BF, 0x4FBD, 0x5519, 0x4C16, 0xCA49, 0x4FE7, 0xCEF1, 0x4E1D, 0x4641,
    0xC679, 0x5562, 0xC604, 0xD0F1, 0x546C, 0xD54E, 0xBF10, 0xD20E, 0x4E74, 0x400F, 0x51F4, 0x547E, 0xD5D4, 0x4245, 0xC014, 0xD303, 0x48C6, 0xCB5E, 0xD66E, 0x553B,
    0x4E8C, 0xC698, 0xD46B, 0x55C9, 0x5186, 0xC455, 0x4AF8, 0x4F39, 0x4A9E, 0xBBB2, 0x5561, 0x4E24, 0xC95D, 0xC8DE, 0xD070, 0x4C15, 0xCE49, 0xD1BA, 0xCDA2, 0xD2AF,
    0x4F77, 0xCEB3, 0xC912, 0x4745, 0xD001, 0xCEC0, 0x4E8D, 0x54CC, 0x4063, 0xCB9B, 0x511A, 0xD56D, 0xCD62, 0xC5B6, 0x419D, 0xD250, 0x513F, 0xCDE9, 0xD805, 0x4D01,
    0xCE70, 0x54C8, 0xC410, 0xD21B, 0x3B1B, 0xC279, 0xD2FC, 0x4C35, 0xD1C6, 0x51FD, 0x44C7, 0x4FE6, 0xC55E, 0xD121, 0xD5CF, 0xCCD7, 0x543D, 0xD479, 0xD0C4, 0xD038,
    0xCDF7, 0x454C, 0x4443, 0xCF69, 0x4762, 0x4D17, 0x5102, 0x4843, 0xD88A, 0xD4C5, 0x478F, 0x503C, 0xD42F, 0xCC01, 0xD4ED, 0xD039, 0xD1B8, 0x4112, 0x5006, 0xC966,
    0x3D1B, 0x3ACF, 0xD03C, 0xD0F0, 0xD204, 0x5023, 0xC9CE, 0xD2C4, 0x5432, 0x5414, 0x575C, 0x55E9, 0xBB3E, 0x4773, 0x5188, 0xD257, 0xD253, 0x455F, 0xC8C9, 0x498F,
    0x4FF2, 0xCE0C, 0xC92A, 0x544C, 0xD123, 0xB62D, 0xC858, 0xD198, 0xD4E2, 0x490C, 0xC67F, 0xD0D5, 0x4B3E, 0x43C3, 0x4B3A, 0xD0D1, 0xD1EA, 0x4EAA, 0x51DC, 0xBD00,
    0x552A, 0xD38B, 0xD3CA, 0xD330, 0x4E29, 0x4D55, 0x4D5C, 0x4FE6, 0xD3BC, 0xD10C, 0xD4B4, 0x4C75, 0x5388, 0xC198, 0xD10E, 0xBF56, 0xD0F6, 0xCB85, 0xCDD1, 0x4E19,
    0xCC89, 0xD37B, 0x478B, 0x4450, 0x5460, 0x5030, 0x4AB3, 0xC8B5, 0x4771, 0x4DC6, 0x2DD6, 0x531B, 0xC9F1, 0x4B14, 0xD5DA, 0x5043, 0x4B29, 0x50FE, 0x38CB, 0x56A6,
    0xCD48, 0xD467, 0xD415, 0xCFD1, 0x4F9B, 0xD1A0, 0x5359, 0xCEA5, 0x4AAF, 0x53EA, 0xD0BD, 0x5149, 0x4F57, 0x4A05, 0xD14C, 0xCC52, 0x4810, 0xD7E1, 0x52AF, 0x4FD3,
    0xCB72, 0xCC4D, 0xD426, 0x4D3B, 0xD145, 0x518B, 0xD1FD, 0xC133, 0x54EE, 0x5803, 0xD08D, 0xCA45, 0xD332, 0x4EEA, 0xD0CF, 0xCFB8, 0xD3C9, 0xD267, 0x54BD, 0xD481,
    0x5468, 0x5481, 0xC879, 0xCD0E, 0x51BD, 0x3A16, 0xCC17, 0x4DBE, 0xD62F, 0xCAF4, 0xD2C1, 0xD2A4, 0x46E8, 0x54E3, 0xD0CB, 0x51FC, 0x540A, 0x51A6, 0x4C22, 0x4C42,
    0x4FB7, 0xD148, 0xC634, 0x482E, 0xCB8A, 0xD2EF, 0x55C1, 0x57DE, 0xCED1, 0x4D1B, 0x54DB, 0x5041, 0xD0CD, 0x3D1F, 0xD558, 0xD62B, 0x4E44, 0x53A3, 0xC9C6, 0x4C76,
    0x4967, 0x4E54, 0xCD53, 0x543A, 0xC028, 0x4F7D, 0xCFAD, 0xCE08, 0x55D7, 0x57D8, 0x4EA5, 0x549E, 0xCE7E, 0x5118, 0x4D38, 0xCE6D, 0x4DBC, 0x5441, 0xD1DC, 0xCA23,
    0xBE94, 0xCCC2, 0xD42D, 0x557F, 0x54D4, 0xD213, 0xD0F7, 0x3A96, 0x5223, 0xD5CE, 0xD445, 0xD4C1, 0xC9E8, 0x54FD, 0xC7DD, 0xD647, 0xC65D, 0x5881, 0xB4E1, 0xD18A,
    0xC79A, 0x5614, 0x48FB, 0x5014, 0xD3E4, 0xD957, 0x5651, 0xC942, 0x4FD9, 0xD627, 0x53EB, 0x4EB2, 0xCF7F, 0x548F, 0x4D07, 0xD745, 0x5746, 0x57E7, 0x5428, 0x5046,
    0xCBC0, 0x5069, 0xB460, 0x4C10, 0x586E, 0x4EE9, 0xCEC9, 0xD505, 0x50F2, 0x5652, 0x567C, 0x523F, 0xC89E, 0xC8DC, 0x549C, 0xCB73, 0x5126, 0x53C2, 0x4F29, 0x5310,
    0xD28E, 0xD409, 0x4CD8, 0xD4ED, 0xD130, 0xCE22, 0x5036, 0x4F85, 0x5014, 0xD0A6, 0x508A, 0x52E8, 0x46A7, 0x4348, 0xD08C, 0x550A, 0xCFE2, 0x54DD, 0x5010, 0xD03E,
    0x5432, 0xCA65, 0x5486, 0xCDFE, 0x4C08, 0x45A3, 0x5361, 0xC59A, 0x50DF, 0xD01C, 0x4F22, 0x561F, 0x5412, 0x5254, 0x4D9D, 0xCDE3, 0x5122, 0xC85D, 0xCB43, 0xC0C6,
    0x409E, 0xD7CC, 0x52F6, 0x5449, 0x553C, 0xCE99, 0x570A, 0x3B6F, 0xC7B1, 0x5599, 0xD4D5, 0x5394, 0xCFCB, 0x502D, 0xD276, 0x5073, 0x50A5, 0xD20A, 0xD369, 0x5323,
    0x4883, 0xCE86, 0x508F, 0xD150, 0x47D6, 0x4DA2, 0xD689, 0x5355, 0xD0DD, 0x4487, 0x5549, 0x480B, 0xD452, 0xD862, 0x56B4, 0x50A8, 0x4FE0, 0x4B7C, 0xD080, 0xCF0B,
    0xCEEF, 0x4465, 0x535F, 0xD7EE, 0x4BC6, 0x4D61, 0x4FC0, 0xCC19, 0xD250, 0x4DB2, 0x5390, 0xD3CF, 0x5572, 0xD27B, 0x4C56, 0xC1E3, 0x5326, 0xC661, 0xC60D, 0x5394,
    0xCD82, 0xCC71, 0x4C98, 0x552F, 0xD77B, 0xD2CF, 0xCA48, 0xD353, 0xD062, 0x4C32, 0xCD4E, 0x4519, 0x519D, 0xD48A, 0x5269, 0xD0AE, 0x4E57, 0x55BD, 0xD547, 0x578B,
    0xCC53, 0xD0C6, 0x3E84, 0x5138, 0x4826, 0xC538, 0x4A94, 0xD305, 0x5528, 0xCCD6, 0x4D14, 0xBAC5, 0xD084, 0x4D12, 0xD4F3, 0xD5CB, 0x5100, 0x55AB, 0xCF55, 0x50E3,
    0xD446, 0xC99B, 0x55AD, 0x4C15, 0xD585, 0x5815, 0x5535, 0x485B, 0x545C, 0x5357, 0x495C, 0x582B, 0xD3F0, 0x4D44, 0xCFB1, 0x499F, 0xD315, 0x4CE0, 0xD57A, 0x4FFC,
    0xD0B0, 0xC42F, 0xD3A3, 0xCF58, 0xCC49, 0x523D, 0x557E, 0xCD34, 0xD531, 0x5685, 0x5040, 0xCFCA, 0xD222, 0xD1D0, 0x5479, 0x54B0, 0x51FA, 0x55A5, 0x5045, 0xCDED,
    0xD135, 0xD4FE, 0x5902, 0xC8ED, 0xC2B5, 0xD05F, 0xD0FD, 0xD262, 0xB8F7, 0xCF59, 0xD10F, 0x50F4, 0x5240, 0x51E5, 0x4F78, 0x5347, 0xD539, 0xCFD2, 0x5410, 0x4E68,
    0x4F11, 0x54F0, 0xD23D, 0xCDC4, 0x3C16, 0xCA1A, 0x2D79, 0x5749, 0x4F2B, 0xCC21, 0x52DE, 0xCE3E, 0xCFFA, 0x453F, 0xD4AC, 0xD2A3, 0xD57F, 0x5261, 0x4F74, 0x4AAD,
    0xD076, 0xCEAC, 0x51EB, 0xCA36, 0xCB2E, 0x466D, 0x5071, 0xD4FA, 0x5134, 0x4D1A, 0xD19A, 0x5228, 0xCF39, 0xCC2C, 0xBC70, 0x46D9, 0xCA67, 0x545F, 0xCFB1, 0xD486,
    0x5485, 0x4064, 0x55F1, 0xD349, 0xD20C, 0xD0A9, 0x4C70, 0xD4CF, 0x462A, 0xCF29, 0x559F, 0xD01F, 0xD0F7, 0xC36C, 0x53B6, 0xD240, 0xCEB7, 0x5230, 0x4F2E, 0x53E3,
    0xCCF8, 0xCD48, 0x46E3, 0xCCE2, 0x551A, 0xCD1F, 0xC60C, 0xC117, 0x5406, 0x4A57, 0xD084, 0xD039, 0xD018, 0xD1FD, 0xD24E, 0x477B, 0x526D, 0xCEBC, 0x4CDE, 0x44FD,
    0x5382, 0x5451, 0x5116, 0x5199, 0xD0A4, 0x535A, 0xCAF6, 0x45B1, 0x52BB, 0xD0D7, 0x52F7, 0xD218, 0x5556, 0xC4F0, 0xCE69, 0x50D5, 0x5089, 0xD02C, 0xCD2C, 0xD162,
    0xCB15, 0x5554, 0x532A, 0x5181, 0xC25E, 0xD1F6, 0x5036, 0xC3EE, 0x4C02, 0xD057, 0x4F85, 0xD4A5, 0x4FA9, 0x5193, 0xC837, 0xD406, 0x50A6, 0x4C2B, 0xD42F, 0x5449,
    0x50E5, 0x50BC, 0x4965, 0x4F8E, 0xD2D1, 0x4B91, 0x48BB, 0xBADD, 0xC807, 0xCE9C, 0xD315, 0x54F5, 0x4C0F, 0x54BA, 0xD537, 0x4DB2, 0x4F0D, 0xD212, 0x5326, 0x585A,
    0xD052, 0x5553, 0xC8AD, 0xD07C, 0x5352, 0x55B6, 0xD231, 0x49A4, 0xD3BB, 0xD400, 0x5441, 0x5219, 0x5559, 0xD4D7, 0xD1BE, 0x4F70, 0x54FC, 0x53AC, 0x5233, 0x5002,
    0xCF19, 0x552F, 0xCCDA, 0x5629, 0xD05D, 0x4A46, 0x5207, 0xC535, 0xD0B4, 0x5277, 0xD398, 0x56D3, 0x547A, 0xCC29, 0xC9FF, 0x5474, 0xD36C, 0x4A47, 0xD1C0, 0x417E,
    0x4F4A, 0x47D0, 0xD483, 0xD2CF, 0xC8B4, 0xD467, 0x4EB8, 0xCDC0, 0x4D6A, 0xD47E, 0xCA34, 0xC80E, 0xCF59, 0x543A, 0x456E, 0x544E, 0xD44D, 0xD2E1, 0x52FB, 0xD385,
    0xD009, 0xD4A5, 0xCE2B, 0xCEA6, 0xD521, 0xD21C, 0x472E, 0x553D, 0x4AA8, 0xCBAB, 0xD169, 0xCC11, 0x4D45, 0x4FC0, 0x5529, 0xC93B, 0x55D9, 0x550B, 0x55CD, 0x4F6E,
    0xCF8E, 0xD2D4, 0x4898, 0xD16E, 0x4A22, 0x425A, 0x4BC9, 0xD407, 0xD2D9, 0xCC51, 0x537F, 0xC6D8, 0xC582, 0x4765, 0x57C1, 0xCFB7, 0xC1A2, 0xC922, 0xC41D, 0x3D2F,
    0xCE75, 0x5564, 0xD336, 0xCF26, 0x5025, 0xC203, 0x3DF8, 0xD213, 0x4C74, 0x514F, 0x4D55, 0xD4B8, 0x4CAD, 0x44C1, 0x53D6, 0x4F25, 0x501B, 0x4F16, 0x54DF, 0xD20C,
    0x48C3, 0xD28F, 0x5251, 0x5495, 0x50FD, 0xC970, 0x544C, 0x4996, 0x4D75, 0x54E7, 0xC9D1, 0x515B, 0x53E4, 0xD214, 0x521F, 0x5535, 0xC990, 0xD2BA, 0x51AC, 0x41E1,
    0x542A, 0x4787, 0x4979, 0x576E, 0x4911, 0x55BD, 0xC924, 0x54E3, 0xCC34, 0xCF5C, 0x4EEF, 0xD1BB, 0xC4DB, 0xD249, 0x4F8C, 0x4C28, 0xD45A, 0xCE7E, 0x513C, 0x5238,
    0x55FB, 0x56F8, 0xD09C, 0x5799, 0xD560, 0xD499, 0x4CCC, 0x49F3, 0xD15A, 0xD059, 0xCCD9, 0xCCB9, 0xC0FC, 0x53FE, 0xCAF7, 0x391E, 0x5206, 0xBFFE, 0x5408, 0xCDD4,
    0xC821, 0x49B2, 0x4B79, 0x4AE6, 0x48A1, 0x52F3, 0x4177, 0xD7F1, 0xD1C9, 0xBC6D, 0xD35E, 0xD0E5, 0x4BC1, 0x535D, 0xD458, 0x54C5, 0x4D36, 0x5311, 0x4CC7, 0x5163,
    0x4DAE, 0x4C21, 0x46F6, 0x47AA, 0xCFE7, 0xD142, 0x4C7F, 0xD15A, 0xD356, 0x4C46, 0xD13E, 0xD32F, 0xCEC1, 0xD345, 0x553C, 0x4D29, 0x5028, 0x5303, 0xD130, 0xD117,
    0x4C8A, 0xD1C9, 0xD1C3, 0x461F, 0xCCE1, 0xC928, 0x47AA, 0xCDA5, 0xCC17, 0x51DD, 0x5047, 0x472B, 0xD259, 0x4D3C, 0x51CA, 0xD593, 0xD6BB, 0xD45F, 0x50B9, 0x5725,
    0x4BFF, 0x52FF, 0xD330, 0xCD0C, 0x544E, 0xCEE9, 0x5199, 0x4C9C, 0x4FD2, 0x4ED8, 0xD2C7, 0x54FB, 0x3B3B, 0xCEC4, 0xD58A, 0x4AAD, 0xD137, 0x50BD, 0xCDFA, 0x48E9,
